'<pad>_'
'<EOS>_'
'<trst>_'
', _'
'._'
'the_'
'_'
'in_'
'of_'
'and_'
'to_'
'die_'
'der_'
'und_'
'a_'
's_'
'-_'
'is_'
'that_'
'zu_'
'for_'
'den_'
'von_'
'on_'
'n_'
'ist_'
'für_'
'. _'
'an_'
'The_'
'with_'
'en_'
'are_'
'be_'
'es_'
'das_'
'e_'
'auf_'
'as_'
'des_'
'mit_'
'it_'
'eine_'
'dass_'
'nicht_'
'have_'
'im_'
'by_'
'I_'
'not_'
'this_'
' (_'
'sich_'
' – _'
'was_'
'ein_'
'from_'
'werden_'
'Die_'
'will_'
'’_'
'we_'
'dem_'
't_'
'has_'
': _'
'which_'
'or_'
'Sie_'
'at_'
'als_'
'er_'
'wir_'
'In_'
'auch_'
'you_'
'sind_'
'um_'
'r_'
'wird_'
'so_'
') _'
'ing_'
'all_'
''_'
'sie_'
'd_'
'can_'
' - _'
'einer_'
'haben_'
'hat_'
'also_'
'wie_'
'European_'
'their_'
'its_'
'oder_'
'more_'
'would_'
'über_'
'einen_'
'?_'
'but_'
'ed_'
'ich_'
'y_'
'zur_'
'our_'
'aus_'
'one_'
'been_'
'Das_'
'they_'
'bei_'
'; _'
'einem_'
'Union_'
'should_'
'It_'
'können_'
'nur_'
'durch_'
'diese_'
'This_'
'/_'
'EU_'
'nach_'
'do_'
'zum_'
'countries_'
'de_'
'am_'
'only_'
'We_'
'kann_'
' , _'
'1_'
'other_'
'war_'
'new_'
'there_'
'your_'
'ung_'
'o_'
'dieser_'
'noch_'
'than_'
'about_'
'Der_'
'Mr_'
'2_'
'like_'
'were_'
'vor_'
'wenn_'
'man_'
'Europe_'
'President_'
'no_'
'Ich_'
'- _'
'us_'
'aber_'
'must_'
'm_'
' "_'
'who_'
'Es_'
'these_'
'wurde_'
'sein_'
'world_'
'up_'
'very_'
'time_'
'if_'
'US_'
'Hotel_'
'A_'
'ten_'
'Commission_'
'such_'
' “_'
'uns_'
' ._'
'people_'
'his_'
'Wir_'
'mehr_'
'out_'
'te_'
'müssen_'
'But_'
'into_'
'5_'
'now_'
'when_'
'ihre_'
'3_'
'most_'
'sehr_'
'many_'
'China_'
'what_'
'Kommission_'
'some_'
'!_'
'States_'
'he_'
'% _'
' „_'
'them_'
'ng_'
'ly_'
'had_'
'l_'
'economic_'
')._'
'any_'
'4_'
'), _'
'Herr_'
'eines_'
'years_'
'well_'
'need_'
',_'
'even_'
'diesem_'
'unter_'
'" _'
'muss_'
'alle_'
'use_'
'over_'
'zwischen_'
'way_'
'i_'
'political_'
'first_'
'make_'
'hotel_'
'keine_'
'bis_'
'because_'
'work_'
'two_'
'may_'
'those_'
'Parliament_'
'policy_'
'my_'
'could_'
'important_'
'anderen_'
'government_'
'between_'
'gibt_'
'report_'
'system_'
'Europäischen_'
'Council_'
'gegen_'
'support_'
'Präsident_'
'Europa_'
'0_'
'vom_'
'ungen_'
'just_'
'If_'
'al_'
'seine_'
'year_'
'sowie_'
'” _'
'made_'
'much_'
'being_'
'möchte_'
'dieses_'
'Member_'
'country_'
'take_'
'able_'
'where_'
'public_'
'“ _'
'Welt_'
'how_'
'after_'
'market_'
'Wenn_'
'Jahr_'
'' _'
'Menschen_'
'wurden_'
'global_'
'both_'
'(_'
'USA_'
' _'
'international_'
'Im_'
'right_'
'good_'
'da_'
'sondern_'
'As_'
'Zeit_'
'Jahren_'
'ihrer_'
'through_'
'part_'
'last_'
'dies_'
'own_'
'k_'
'immer_'
':_'
'g_'
'diesen_'
'Diese_'
'For_'
'würde_'
'social_'
'United_'
'financial_'
'Länder_'
'long_'
'6_'
'S_'
'7_'
'same_'
'hier_'
'unsere_'
'then_'
'end_'
'damit_'
'h_'
'jedoch_'
'andere_'
'growth_'
're_'
'ohne_'
'Bericht_'
'against_'
'information_'
'sollten_'
'10_'
'does_'
'dann_'
'heute_'
'Und_'
'high_'
'le_'
'There_'
'sollte_'
'seiner_'
'order_'
'free_'
'8_'
'too_'
'point_'
'far_'
'Mitgliedstaaten_'
'’ _'
'under_'
'neue_'
'z_'
'Regierung_'
'ion_'
'national_'
'europäischen_'
'fact_'
'see_'
'Entwicklung_'
'within_'
'rights_'
'bereits_'
'area_'
'Parlament_'
'Europäische_'
'possible_'
'place_'
'könnte_'
'20_'
'example_'
'And_'
'want_'
'me_'
'course_'
'already_'
'since_'
'set_'
'room_'
'great_'
'development_'
'denen_'
'number_'
'her_'
'neuen_'
'future_'
'before_'
'So_'
'Land_'
'power_'
'That_'
'während_'
'less_'
'c_'
' [[_'
'ihren_'
'Ein_'
'still_'
'la_'
'without_'
'Frage_'
'zwei_'
'You_'
'selbst_'
'used_'
'wieder_'
'weil_'
'today_'
'ation_'
' | _'
'say_'
'ihr_'
'! _'
'se_'
'jetzt_'
'dazu_'
'wäre_'
'including_'
'000_'
'viele_'
'human_'
'problem_'
'change_'
'large_'
'9_'
'here_'
'Unternehmen_'
'therefore_'
'cannot_'
'Aber_'
'America_'
'become_'
'30_'
'..._'
'find_'
'few_'
' '_'
'einige_'
'trade_'
'economy_'
'Lage_'
'15_'
'machen_'
'while_'
'state_'
'real_'
'believe_'
'down_'
'level_'
'ers_'
'case_'
'Maßnahmen_'
'C_'
'darauf_'
'denn_'
'Eine_'
'three_'
'geht_'
'available_'
'help_'
'wo_'
'process_'
'next_'
'ne_'
'dafür_'
'better_'
'viel_'
'per_'
'view_'
'liegt_'
'issue_'
'2009_'
'different_'
'Ihnen_'
've_'
'unserer_'
'means_'
'et_'
'E_'
'clear_'
'Japan_'
'Ländern_'
'Jahre_'
'st_'
'go_'
'They_'
'however_'
'Frau_'
'waren_'
'allen_'
'Mit_'
'00_'
'rs_'
'best_'
'B_'
'services_'
'mich_'
'doch_'
'business_'
'areas_'
'Iran_'
'u_'
'finden_'
'energy_'
'why_'
'lassen_'
'Dies_'
'interest_'
'habe_'
'during_'
'crisis_'
'back_'
'question_'
'gut_'
'security_'
'daß_'
'day_'
'city_'
'nun_'
'based_'
'bar_'
'Doch_'
'ts_'
'private_'
'Committee_'
'small_'
'know_'
'get_'
'ganz_'
'current_'
'Politik_'
'service_'
'problems_'
'el_'
'access_'
'These_'
'wollen_'
'lich_'
'allem_'
'To_'
'50_'
'role_'
'letzten_'
'every_'
'ch_'
'besteht_'
'Staaten_'
'Israel_'
'politischen_'
'com_'
'x_'
'seit_'
'offers_'
'making_'
'common_'
'Commissioner_'
'whether_'
'result_'
'etwas_'
'D_'
'provide_'
'each_'
'ob_'
'worden_'
'politische_'
'come_'
'ce_'
'bietet_'
'When_'
'Rat_'
'stellen_'
'particular_'
'health_'
'Zimmer_'
'Wie_'
'Probleme_'
'law_'
'action_'
'Ende_'
'tion_'
'major_'
'ge_'
'think_'
'Internet_'
'Bereich_'
'term_'
'Ziel_'
'At_'
'schon_'
'rate_'
'put_'
'World_'
'Ihre_'
'seinen_'
'debate_'
'ns_'
'drei_'
'Russia_'
'New_'
'zwar_'
'ter_'
'stay_'
'might_'
'policies_'
'non_'
'measures_'
'markets_'
'given_'
'citizens_'
'Auch_'
'Art_'
'einfach_'
'did_'
'again_'
'On_'
'American_'
'2008_'
'page_'
'old_'
'million_'
'around_'
'Unterstützung_'
'Euro_'
'steht_'
'governments_'
'full_'
'Fall_'
'12_'
'weniger_'
'situation_'
'needs_'
'insbesondere_'
'further_'
'|_'
'money_'
'T_'
'said_'
'often_'
'main_'
'little_'
'System_'
'Germany_'
'weiter_'
'open_'
'life_'
'erhalten_'
'Herrn_'
'Bank_'
'Arbeit_'
'2000_'
'rooms_'
'hatte_'
'House_'
'11_'
'women_'
'rules_'
'que_'
'institutions_'
'called_'
'With_'
'Als_'
'taken_'
'ment_'
'give_'
'debt_'
'another_'
'sagen_'
'möglich_'
'deren_'
'beim_'
'Sicherheit_'
'recent_'
'mir_'
'systems_'
'quality_'
'proposal_'
'issues_'
'data_'
'rather_'
'p_'
'kommen_'
'increase_'
'große_'
'ersten_'
'Problem_'
'All_'
'members_'
'local_'
'hope_'
'gen_'
'budget_'
'bin_'
'Namen_'
'Bürger_'
'ies_'
'du_'
'davon_'
'Informationen_'
'Bei_'
'tun_'
'second_'
'eigenen_'
'continue_'
'Millionen_'
'He_'
'sector_'
'military_'
'group_'
'gegenüber_'
'close_'
'Teil_'
'Rahmen_'
'Nach_'
'German_'
'vote_'
'sehen_'
'others_'
'ons_'
'children_'
'agreement_'
'P_'
'located_'
'großen_'
'führen_'
'terms_'
'stehen_'
'short_'
'rates_'
'past_'
'os_'
'line_'
'f_'
'What_'
'2005_'
'price_'
'geben_'
'especially_'
'weitere_'
'though_'
'necessary_'
'low_'
'least_'
'einmal_'
']] _'
'off_'
'legal_'
'ern_'
'dort_'
'away_'
'ab_'
'together_'
'sten_'
'soll_'
'once_'
'led_'
'Zusammenarbeit_'
'Recht_'
'2006_'
' $_'
'investment_'
'etwa_'
'bringen_'
'basis_'
'Bedeutung_'
'100_'
'yet_'
'using_'
'itself_'
'dabei_'
'conditions_'
'Auf_'
'ry_'
'ensure_'
'companies_'
'Für_'
' & _'
'third_'
'leaders_'
'century_'
'allerdings_'
'aller_'
'\u_'
'Rolle_'
'O_'
'Er_'
'2001_'
'pro_'
'position_'
'particularly_'
'ieren_'
'him_'
'chen_'
'central_'
'Community_'
'2007_'
'risk_'
'ins_'
'innerhalb_'
'greater_'
'capital_'
'banks_'
'always_'
'Weise_'
'One_'
'öffentlichen_'
'certain_'
'Indeed_'
'Fragen_'
'2004_'
'region_'
'Zukunft_'
'resources_'
'location_'
'create_'
'.”_'
'modern_'
'meisten_'
'könnten_'
'kein_'
'form_'
'erreichen_'
'efforts_'
'unseren_'
'single_'
'democracy_'
'ago_'
'age_'
'Was_'
'Region_'
'France_'
'staff_'
'foreign_'
'ble_'
'Seite_'
'However_'
'states_'
'sogar_'
'society_'
'present_'
'key_'
'ihnen_'
'working_'
'fully_'
'cooperation_'
'among_'
'alles_'
'aid_'
'UN_'
'vielen_'
'start_'
'costs_'
'control_'
'Europas_'
'prices_'
'done_'
'decision_'
'approach_'
'Wirtschaft_'
'M_'
'East_'
'würden_'
'water_'
'reform_'
'needed_'
'nd_'
'indem_'
'home_'
'going_'
'almost_'
'Weg_'
' ..._'
'nden_'
'meine_'
'internationalen_'
'hin_'
'excellent_'
'europäische_'
'Wachstum_'
'Vorschlag_'
'Chinese_'
'left_'
'fast_'
'environment_'
'b_'
'Leben_'
'unterstützen_'
'really_'
'Stadt_'
'whole_'
'tax_'
'protection_'
'education_'
'centre_'
'account_'
'Deutschland_'
'special_'
'wissen_'
'period_'
'men_'
'iert_'
'ic_'
'higher_'
'aufgrund_'
'Um_'
'Frauen_'
'welche_'
'nt_'
'name_'
'having_'
'early_'
'Seiten_'
'25_'
'shall_'
'several_'
'reason_'
'never_'
'ja_'
'ischen_'
'developing_'
'demand_'
'Kinder_'
'Beispiel_'
'wirtschaftlichen_'
'until_'
'möchten_'
'keit_'
'food_'
'G_'
'2003_'
' _'
'production_'
'nehmen_'
'longer_'
'general_'
'cost_'
'Grund_'
'2002_'
' '
'sowohl_'
'nuclear_'
'kommt_'
'interests_'
'ihm_'
'enough_'
'daher_'
'Obama_'
'Mrs_'
'Group_'
'16_'
'wirklich_'
'standards_'
'offer_'
'meiner_'
'hand_'
'em_'
'September_'
'Iraq_'
' % _'
'views_'
'seinem_'
'play_'
'bieten_'
'India_'
'value_'
'th_'
'side_'
'sei_'
'products_'
'plan_'
'look_'
'darüber_'
'darin_'
'billion_'
'Zusammenhang_'
'No_'
'Möglichkeit_'
'International_'
'taking_'
'something_'
'results_'
'resolution_'
'remain_'
'progress_'
'peace_'
'matter_'
'land_'
'climate_'
'Dollar_'
';_'
'workers_'
'vielleicht_'
'un_'
'stellt_'
'simply_'
'schen_'
'respect_'
'regional_'
'management_'
'gentlemen_'
'following_'
'R_'
'Landes_'
'18_'
'ted_'
'ever_'
'besonders_'
'poor_'
'known_'
'income_'
'include_'
'State_'
'Regierungen_'
'Parlaments_'
'N_'
'Lösung_'
'40_'
'themselves_'
'show_'
'sche_'
'proposals_'
'nen_'
'liche_'
'etc_'
'entfernt_'
'economies_'
'befindet_'
'Central_'
'24_'
'things_'
'rn_'
'research_'
'regard_'
'force_'
'difficult_'
'democratic_'
'big_'
'beiden_'
'ar_'
'agree_'
'U_'
'Moreover_'
'Man_'
'L_'
'After_'
'Africa_'
'wish_'
'various_'
'site_'
'personal_'
'member_'
'lead_'
'ity_'
'fall_'
'breakfast_'
'Ziele_'
'November_'
'Bush_'
'wichtig_'
'wenig_'
'weiterhin_'
'ous_'
'll_'
'list_'
'ihrem_'
'framework_'
'beispielsweise_'
'Service_'
'Richtlinie_'
'Kosten_'
'Investitionen_'
'Fraktion_'
'By_'
'weit_'
'ty_'
'thus_'
'programme_'
'makes_'
'industry_'
'across_'
'above_'
'Verfügung_'
'F_'
'traditional_'
'likely_'
'halten_'
'groups_'
'found_'
'easy_'
'created_'
'Mittel_'
'French_'
'serious_'
'oil_'
'hatten_'
'family_'
'enden_'
'dessen_'
'building_'
'Milliarden_'
'Macht_'
'Daten_'
'verschiedenen_'
'related_'
'proposed_'
'months_'
'hinaus_'
'gemacht_'
'gehen_'
'Situation_'
'Geschichte_'
'transport_'
'schaffen_'
'population_'
'macht_'
'les_'
'keinen_'
'forward_'
'direkt_'
'besser_'
'arbeiten_'
'Russland_'
'Programm_'
'Kommissar_'
'words_'
'welcome_'
'strategy_'
'software_'
'provided_'
'projects_'
'opportunity_'
'near_'
'nationalen_'
'lichen_'
'ihn_'
'ie_'
'directive_'
'ask_'
'allow_'
'Bevölkerung_'
'stand_'
'experience_'
'changes_'
'Thema_'
'Form_'
'21_'
'wichtige_'
'top_'
'times_'
'questions_'
'online_'
'feel_'
'attention_'
'Some_'
'GDP_'
'14_'
'seen_'
'reforms_'
'points_'
'nichts_'
'nde_'
'ls_'
'hätte_'
'fiscal_'
'ebenfalls_'
'bedeutet_'
'Of_'
'Grundlage_'
'Auswirkungen_'
'2010_'
'young_'
'version_'
'user_'
'specific_'
'run_'
'rapporteur_'
'nächsten_'
'ner_'
'light_'
'freedom_'
'ende_'
'Western_'
'South_'
'Restaurant_'
'Our_'
'Krise_'
'Krieg_'
'Even_'
'Ansicht_'
'true_'
'total_'
'safety_'
'rise_'
'ren_'
'program_'
'ladies_'
'km_'
'house_'
'half_'
'gilt_'
'Treaty_'
'Dieses_'
'An_'
'technology_'
'success_'
'sollen_'
'sicher_'
'she_'
'seems_'
'schnell_'
'history_'
'eurozone_'
'behalf_'
'authorities_'
'achieve_'
'West_'
'Kollegen_'
'19_'
'towards_'
'relations_'
'ierung_'
'gute_'
'employment_'
'either_'
'cultural_'
'bzw_'
'bleibt_'
'adopted_'
'Ukraine_'
'Paris_'
'Ebene_'
'Alle_'
'– _'
'town_'
'strong_'
'ss_'
'sch_'
'remains_'
'positive_'
'pages_'
'nämlich_'
'let_'
'internationale_'
'due_'
'deutlich_'
'deal_'
'call_'
'Madam_'
'Gemeinschaft_'
',” _'
'statt_'
'sense_'
'range_'
'language_'
'funds_'
'erste_'
'ebenso_'
'days_'
'concerns_'
'company_'
'che_'
'bekannt_'
'amendments_'
'Minister_'
'Institutionen_'
'Ihr_'
'Demokratie_'
'Da_'
'British_'
'Asia_'
'April_'
'é_'
'à_'
'sure_'
'significant_'
'setzen_'
'sen_'
'regions_'
'ra_'
'parties_'
'lediglich_'
'jeder_'
'ische_'
'individual_'
'impact_'
'globalen_'
'focus_'
'euro_'
'community_'
'cases_'
'ben_'
'art_'
'X_'
'Schutz_'
'London_'
'Indien_'
'Hotels_'
'whose_'
'ting_'
'solche_'
'required_'
'levels_'
'kind_'
'jobs_'
'gesagt_'
'gab_'
'everything_'
'content_'
'Meinung_'
'Gesellschaft_'
'Geld_'
'EUR_'
'zurück_'
'upon_'
'solution_'
'sea_'
'leading_'
'keep_'
'führt_'
'former_'
'face_'
'enjoy_'
'currently_'
'consider_'
'competition_'
'address_'
'Beziehungen_'
'60_'
'son_'
'pay_'
'natürlich_'
'los_'
'later_'
'inflation_'
'fünf_'
'field_'
'bleiben_'
'actually_'
'Vereinigten_'
'Strategie_'
'Members_'
'Jahres_'
'II_'
'Hilfe_'
'Greece_'
' . _'
'unserem_'
'understand_'
'step_'
'share_'
'restaurant_'
'quite_'
'majority_'
'improve_'
'ia_'
'held_'
'growing_'
'genau_'
'four_'
'erreicht_'
'environmental_'
'concerned_'
'center_'
'balance_'
'Windows_'
'Dieser_'
'BIP_'
'ways_'
'values_'
'thank_'
'station_'
'return_'
'recently_'
'minutes_'
'legislation_'
'indeed_'
'game_'
'date_'
'benefit_'
'accept_'
'Zugang_'
'War_'
'TV_'
'Menschenrechte_'
'Haus_'
'Erfolg_'
'1999_'
'subject_'
'rule_'
'responsibility_'
'popular_'
'outside_'
'live_'
'importance_'
'ens_'
'daran_'
'appropriate_'
'V_'
'Turkey_'
'Ihrer_'
'Aus_'
')_'
'text_'
'scheint_'
'potential_'
'natural_'
'move_'
'meeting_'
'media_'
'fundamental_'
'five_'
'einigen_'
'Rates_'
'Italy_'
'Interesse_'
'Frankreich_'
'w_'
'thing_'
'ste_'
'sprechen_'
'spending_'
'project_'
'jeden_'
'involved_'
'handelt_'
'ert_'
'developed_'
'clearly_'
'car_'
'ca_'
'bring_'
'air_'
'Office_'
'"_'
' : _'
'wide_'
'weltweit_'
'tes_'
'tatsächlich_'
'reduce_'
'party_'
'obwohl_'
'model_'
'keyword_'
'internal_'
'increased_'
'heart_'
'hard_'
'facilities_'
'exchange_'
'ent_'
'dürfen_'
'deshalb_'
'conflict_'
'benefits_'
'beautiful_'
'administration_'
'ability_'
'Nähe_'
'Liste_'
'Dienstleistungen_'
'Bezug_'
'&_'
'type_'
'size_'
'principle_'
'opinion_'
'nutzen_'
'lot_'
'huge_'
'hours_'
'gerade_'
'forces_'
'anti_'
'amerikanischen_'
'addition_'
'UK_'
'Staat_'
'Russian_'
'Präsidenten_'
'Mitglieder_'
'M'
'wirtschaftliche_'
'verhindern_'
'verfügt_'
'product_'
'na_'
'lange_'
'ions_'
'comes_'
'ck_'
'certainly_'
'bed_'
'application_'
'T'
'Kampf_'
'Grenzen_'
'17_'
'13_'
'via_'
'verwendet_'
'vergangenen_'
'poverty_'
'pool_'
'person_'
'parts_'
'mean_'
'ive_'
'ideal_'
'hen_'
'ging_'
'effective_'
'effect_'
'cy_'
'care_'
'bereit_'
'Tatsache_'
'Spain_'
'Richtung_'
'Party_'
'Middle_'
'Bedingungen_'
'Banken_'
'"._'
'self_'
'rt_'
'response_'
'reach_'
'integration_'
'decisions_'
'bank_'
'La_'
'Deshalb_'
'Berlin_'
'Bereichen_'
'Bemühungen_'
' -_'
'wären_'
'weiß_'
'unser_'
'turn_'
'stark_'
'provides_'
'klar_'
'igen_'
'erst_'
'eren_'
'civil_'
'add_'
'W_'
'Vor_'
'Von_'
'Park_'
'Government_'
'Außerdem_'
'simple_'
'prevent_'
'politik_'
'oft_'
'neu_'
'living_'
'idea_'
'heit_'
'gemeinsamen_'
'doing_'
'direct_'
'ding_'
'decades_'
'co_'
'check_'
'along_'
'Umsetzung_'
'Terrorismus_'
'Möglichkeiten_'
'More_'
'Ergebnis_'
'Debatte_'
'Aufgabe_'
'Afghanistan_'
' ( _'
'stability_'
'risks_'
'regulation_'
'ness_'
'meet_'
'features_'
'directly_'
'develop_'
'dar_'
'challenges_'
'body_'
'besten_'
'Wert_'
'Verantwortung_'
'Tatsächlich_'
'San_'
'Fortschritte_'
'“, _'
'standard_'
'responsible_'
'require_'
'option_'
'nothing_'
'movement_'
'job_'
'ig_'
'highly_'
'gemeinsame_'
'gegeben_'
'file_'
'currency_'
'computer_'
'complete_'
'clean_'
'ant_'
'York_'
'While_'
'Wahl_'
'Tag_'
'How_'
'Gruppe_'
'December_'
'Aussprache_'
'Ausschuss_'
'23_'
'zeigen_'
'wahrscheinlich_'
'terrorism_'
'strategic_'
'space_'
'reviews_'
'rest_'
'notwendig_'
'net_'
'nature_'
'moment_'
'image_'
'domestic_'
'di_'
'contains_'
'complex_'
'alten_'
'Schritt_'
'Preis_'
'My_'
'Mal_'
'Hier_'
'B'
'Abstimmung_'
'500_'
'wegen_'
'ur_'
'unterstützt_'
'tragen_'
'sub_'
'stop_'
'regime_'
'reasons_'
'perhaps_'
'opportunities_'
'liegen_'
'elections_'
'del_'
'customers_'
'consequences_'
'commitment_'
'capacity_'
'built_'
'border_'
'Prozess_'
'Booking_'
' ''_'
'zusammen_'
'ziehen_'
'wichtigen_'
'weiteren_'
'v_'
'table_'
'ta_'
'sozialen_'
'similar_'
'shown_'
'road_'
'post_'
'politics_'
'network_'
'lack_'
'kleinen_'
'initiative_'
'heißt_'
'gas_'
'favour_'
'extremely_'
'comfortable_'
'challenge_'
'brauchen_'
'Yet_'
'Punkt_'
'Partei_'
'National_'
'K_'
'Irak_'
'Interessen_'
'Ihren_'
'Eurozone_'
'Ergebnisse_'
'Druck_'
'Abkommen_'
'80_'
'takes_'
'night_'
'nie_'
'ke_'
'increasingly_'
'il_'
'geführt_'
'friendly_'
'existing_'
'einzelnen_'
'effects_'
'culture_'
'betrifft_'
'below_'
'became_'
'beach_'
'ary_'
'ally_'
'activities_'
'Zu_'
'Türkei_'
'Prozent_'
'January_'
'Initiative_'
'G'
'Chinas_'
'August_'
'�_'
'walk_'
'visit_'
'vier_'
'verstehen_'
'v'
'training_'
'protect_'
'performance_'
'negotiations_'
'lässt_'
'looking_'
'konnte_'
'größten_'
'glaube_'
'design_'
'darf_'
'came_'
'cal_'
'befinden_'
'anderer_'
'amount_'
'Z'
'Während_'
'Verhandlungen_'
'Software_'
'Seit_'
'Regionen_'
'Platz_'
'O'
'Nationen_'
'Gewalt_'
'Artikel_'
'", _'
'unternehmen_'
'took_'
'structural_'
'red_'
'pressure_'
'gleichzeitig_'
'events_'
'essential_'
'election_'
'derzeit_'
'creating_'
'choice_'
'cause_'
'asked_'
'advanced_'
'Security_'
'Presidency_'
'Pakistan_'
'Ort_'
'. - (_'
'Öffentlichkeit_'
'violence_'
'verschiedene_'
'threat_'
'soziale_'
'schließlich_'
'probably_'
'news_'
'je_'
'infrastructure_'
'included_'
'findet_'
'entwickelt_'
'entwickeln_'
'credit_'
'act_'
'Zum_'
'Website_'
'Verfahren_'
'V'
'Personen_'
'North_'
'NATO_'
'Hinblick_'
' ‘_'
'zeit_'
'ze_'
'wohl_'
'wichtigsten_'
'week_'
'sustainable_'
'successful_'
'soon_'
'receive_'
'politischer_'
'massive_'
'ma_'
'largest_'
'kaum_'
'hold_'
'gehört_'
'eher_'
'don_'
'despite_'
'deficit_'
'card_'
'ate_'
'answer_'
'Vorschläge_'
'Version_'
'Verbindung_'
'Markt_'
'Kunden_'
'Handel_'
'Hand_'
'General_'
'Entscheidung_'
'Enterprise_'
'Antwort_'
'90_'
'27_'
' / _'
'zehn_'
'video_'
'try_'
'style_'
'spielen_'
'sound_'
'seines_'
'rund_'
'recht_'
'purpose_'
'monetary_'
'leben_'
'leadership_'
'labor_'
'gemeinsam_'
'ful_'
'fight_'
'failed_'
'effort_'
'context_'
'committee_'
'chinesischen_'
'board_'
'behind_'
'although_'
'alone_'
'according_'
'Verfassung_'
'Uhr_'
'May_'
'K'
'H'
'Gebiet_'
'Förderung_'
'Forschung_'
'Finally_'
'Court_'
'City_'
'Blick_'
'Bar_'
'Armut_'
'Anfang_'
'22_'
'werde_'
'unique_'
'steps_'
'six_'
'reality_'
'programs_'
'practice_'
'partner_'
'nor_'
'nice_'
'mind_'
'lower_'
'ling_'
'limited_'
'isch_'
'internet_'
'industrial_'
'funding_'
'expect_'
'event_'
'distribution_'
'designed_'
'darum_'
'brought_'
'bisher_'
'basic_'
'ations_'
'Tage_'
'Since_'
'Bekämpfung_'
'Behörden_'
'Arab_'
'-, _'
'weapons_'
'toward_'
'started_'
'rich_'
'previous_'
'places_'
'ors_'
'nahe_'
'music_'
'jedes_'
'jede_'
'instead_'
'ings_'
'includes_'
'guests_'
'goods_'
'front_'
'death_'
'consumers_'
'bad_'
'Zahl_'
'Regeln_'
'Reformen_'
'Obwohl_'
'From_'
'Am_'
'Allerdings_'
'Abgeordneten_'
'..." _'
'öffentliche_'
'ändern_'
'weltweiten_'
'perfect_'
'official_'
'matters_'
'len_'
'ken_'
'implementation_'
'ger_'
'gebracht_'
'failure_'
'established_'
'erster_'
'enthalten_'
'decided_'
'damage_'
'cut_'
'completely_'
'beginning_'
'average_'
'aktuellen_'
'] _'
'Now_'
'March_'
'June_'
'Großbritannien_'
'Führung_'
'Erklärung_'
'Damit_'
'x'
'quickly_'
'objective_'
'negative_'
'mus_'
'lt_'
'lives_'
'latest_'
'hätten_'
'guest_'
'guarantee_'
'erforderlich_'
'double_'
'consumer_'
'agreements_'
'Today_'
'Ressourcen_'
'Reihe_'
'Gelegenheit_'
'E'
'Darüber_'
'Berichterstatter_'
'Amerika_'
'160_'
' " _'
'zed_'
'trotz_'
'thought_'
'schaft_'
'produce_'
'principles_'
'month_'
'mentioned_'
'late_'
'i'
'häufig_'
'helfen_'
'emissions_'
'ds_'
'ces_'
'beyond_'
'base_'
'annual_'
'alternative_'
'allein_'
'achieved_'
'X'
'University_'
'Umwelt_'
'St_'
'Politiker_'
'Osten_'
'Gefahr_'
'Dialog_'
'Development_'
'Bildung_'
'Beginn_'
'1998_'
'1990_'
'verbunden_'
'tell_'
'später_'
'solutions_'
'request_'
'presented_'
'please_'
'p'
'note_'
'gleichen_'
'generation_'
'gar_'
'final_'
'effectively_'
'concern_'
'con_'
'cher_'
'categories_'
'bus_'
'bekommen_'
'avoid_'
'Wort_'
'Schlusselwortern_'
'Produkte_'
'Nutzung_'
'Many_'
'Kontrolle_'
'Funktion_'
'Entscheidungen_'
'Datei_'
'Dabei_'
'D'
'Barcelona_'
'Amerikas_'
'200_'
'zeigt_'
'union_'
'throughout_'
'supported_'
'study_'
'speak_'
'secure_'
'procedure_'
'package_'
'opposition_'
'lost_'
'ler_'
'hoffe_'
'hinsichtlich_'
'guten_'
'ground_'
'gesamten_'
'gehören_'
'famous_'
'entire_'
'emerging_'
'einschließlich_'
'digital_'
'danken_'
'coming_'
'choose_'
'b'
'Zentrum_'
'Schaffung_'
'Qualität_'
'Nations_'
'IMF_'
'Herren_'
'Here_'
'Gesundheit_'
'English_'
'Einsatz_'
'Durch_'
'Daher_'
'Ansatz_'
'70_'
'works_'
'wobei_'
'unemployment_'
'technical_'
'stärker_'
'sorgen_'
'setting_'
'rising_'
'programmes_'
'offered_'
'mobile_'
'ise_'
'increasing_'
'ganzen_'
'function_'
'ft_'
'forms_'
'follow_'
'fest_'
'fair_'
'erwarten_'
'ermöglicht_'
'ermöglichen_'
'enthält_'
'einzige_'
'dollar_'
'cs_'
'considered_'
'closed_'
'child_'
'campaign_'
'book_'
'banking_'
'aware_'
'allowed_'
'Wann_'
'Unsere_'
'Such_'
'Spanien_'
'Rights_'
'Rechte_'
'Only_'
'Lösungen_'
'Greek_'
'First_'
'Erweiterung_'
'Einfluss_'
'Debian_'
'Damen_'
'Anwendung_'
'übernachten_'
'äußerst_'
'wrong_'
'völlig_'
'submitted_'
'sometimes_'
'situated_'
'restaurants_'
'reached_'
'privaten_'
'mail_'
'ihres_'
'hinter_'
'genug_'
'finance_'
'enable_'
'doubt_'
'cities_'
'caused_'
'began_'
'ans_'
'agricultural_'
'agenda_'
'actions_'
'Wahlen_'
'Spiel_'
'Opfer_'
'Mitglied_'
'Korea_'
'Jahrhunderts_'
'Dazu_'
'Dank_'
'DE_'
'CD_'
'Bild_'
'Ausschusses_'
'Angesichts_'
'Afrika_'
', '
'zudem_'
'web_'
'verwenden_'
'status_'
'shows_'
'served_'
'send_'
'promote_'
'productivity_'
'politicians_'
'objectives_'
'nation_'
'ker_'
'jene_'
'instruments_'
'independent_'
'ht_'
'globale_'
'gewährleisten_'
'files_'
'external_'
'est_'
'eigene_'
'charge_'
'bestehen_'
'ated_'
'aspects_'
'anything_'
'accommodation_'
'W'
'Viele_'
'Verbraucher_'
'Putin_'
'Natürlich_'
'Minuten_'
'Mehrheit_'
'Kosovo_'
'Industrie_'
'Frieden_'
'Economic_'
'Dezember_'
'CO2_'
'1791_'
'überhaupt_'
'Änderungsantrag_'
'worked_'
'voted_'
'voll_'
'verfügen_'
'trust_'
'treatment_'
'tra'
'test_'
'speed_'
'server_'
'reduction_'
'plus_'
'original_'
'mal_'
'lose_'
'larger_'
'lang_'
'konnten_'
'j'
'gt_'
'giving_'
'genommen_'
'fishing_'
'enlargement_'
'demands_'
'd'
'consumption_'
'confidence_'
'commercial_'
'build_'
'bevor_'
'ber_'
'Y_'
'Text_'
'Syria_'
'Risiken_'
'Republic_'
'Meer_'
'Kingdom_'
'Integration_'
'Federal_'
'Fed_'
'Familie_'
'F'
' % _'
'verbessern_'
'ut_'
'tic_'
'search_'
'scale_'
'sagte_'
'richtig_'
'requires_'
'received_'
'prepared_'
'plans_'
'paid_'
'neben_'
'minister_'
'ism_'
'ierte_'
'helpful_'
'geworden_'
'fragen_'
'fear_'
'falls_'
'facing_'
'extra_'
'class_'
'bitte_'
'additional_'
'Services_'
'Server_'
'Schulden_'
'S'
'Palestinian_'
'Märkte_'
'Jahrhundert_'
'Italian_'
'Gästebewertungen_'
'Furthermore_'
'Folgen_'
'Dinge_'
'Convention_'
'Aufmerksamkeit_'
'Although_'
'45_'
'28_'
'1781_'
'zahlen_'
'ying_'
'won_'
'website_'
'warum_'
'thousands_'
'story_'
'stable_'
'sechs_'
'requirements_'
'refugees_'
'read_'
'options_'
'möglicherweise_'
'links_'
'knowledge_'
'jedem_'
'item_'
'ige_'
'getting_'
'gestellt_'
'folgt_'
'expected_'
'efficient_'
'dadurch_'
'critical_'
'bereich_'
'au_'
'apartment_'
'active_'
'Zudem_'
'L'
'Kraft_'
'Israeli_'
'Information_'
'I'
'His_'
'Fund_'
'Europeans_'
'Einführung_'
'Center_'
'C'
'Britain_'
'Ausgaben_'
'Affairs_'
'300_'
'. _'
'“._'
'worldwide_'
'wealth_'
'versuchen_'
'ure_'
'speech_'
'source_'
'sign_'
'setzt_'
'sectors_'
'saying_'
'players_'
'neuer_'
'n'
'map_'
'leicht_'
'legislative_'
'leader_'
'kam_'
'influence_'
'ier_'
'größte_'
'großer_'
'f'
'distance_'
'creation_'
'contact_'
'concerning_'
'cht_'
'carried_'
'c'
'businesses_'
'braucht_'
'attack_'
'airport_'
'added_'
'WTO_'
'Präsidentin_'
'Programme_'
'Portugal_'
'Nur_'
'Lissabon_'
'Linie_'
'Herausforderung_'
'Hamas_'
'Gaza_'
'Fehler_'
'Ausdruck_'
'African_'
'zweiten_'
'zweite_'
'zone_'
'z'
'ves_'
'versucht_'
'team_'
'strengthen_'
'stage_'
'spend_'
'ses_'
'safe_'
'relationship_'
'raise_'
'quiet_'
'providing_'
'organisation_'
'nbsp_'
'nations_'
'lines_'
'kleine_'
'inter'
'hoch_'
'happen_'
'goal_'
'gewesen_'
'gesamte_'
'frei_'
'fen_'
'fallen_'
'exports_'
'evidence_'
'erklärt_'
'erklären_'
'dangerous_'
'changed_'
'britischen_'
'borders_'
'angesichts_'
'allows_'
'Zeitpunkt_'
'Werte_'
'Wasser_'
'Vertrauen_'
'Verbesserung_'
'Themen_'
'Rechts'
'Raum_'
'Prime_'
'People_'
'Organisation_'
'Notwendigkeit_'
'Mediterranean_'
'Lisbon_'
'Linux_'
'July_'
'Ihrem_'
'DVD_'
'usually_'
'target_'
'supply_'
'star_'
'solidarity_'
'solchen_'
'sh_'
'seem_'
'school_'
'reducing_'
'possibility_'
'parking_'
'nimmt_'
'nationale_'
'morning_'
'meinen_'
'leave_'
'join_'
'investors_'
'insurance_'
'ideas_'
'hohen_'
'gewinnen_'
'geschaffen_'
'erneut_'
'concept_'
'ausgestattet_'
'applications_'
'[_'
'Zeiten_'
'Web_'
'Verwendung_'
'Vergangenheit_'
'Unter_'
'Tagen_'
'So'
'Saudi_'
'Room_'
'Not_'
'Nahen_'
'Kultur_'
'John_'
'Infrastruktur_'
'Idee_'
'IT_'
'Herausforderungen_'
'Given_'
'Frühstück_'
'Flughafen_'
'During_'
'Chance_'
'Aktivitäten_'
'. '
'--_'
' ) _'
'ß_'
'Änderungsanträge_'
'wenige_'
'uses_'
'users_'
'technologies_'
'structure_'
'stock_'
'statement_'
'schützen_'
'reports_'
'recovery_'
'provisions_'
'primary_'
'office_'
'medical_'
'material_'
'mainly_'
'm'
'ks_'
'ka_'
'justice_'
'joint_'
'innovation_'
'illegal_'
'hohe_'
'gleich_'
'getan_'
'fördern_'
'extent_'
'elements_'
'e'
'discussion_'
'direction_'
'connection_'
'communication_'
'bringt_'
'bit_'
'aufzu'
'anders_'
'activity_'
'Systems_'
'Stunden_'
'Stelle_'
'Social_'
'Schritte_'
'Schließlich_'
'Please_'
'Parteien_'
'Oktober_'
'Muslim_'
'Let_'
'Latin_'
'Juni_'
'Its_'
'Haushalts'
'H_'
'George_'
'Fällen_'
'Design_'
'Constitution_'
'Clinton_'
'Arbeitnehmer_'
'Anzahl_'
'? _'
'29_'
'2011_'
' "..._'
'Änderungen_'
'zen_'
'written_'
'writing_'
'wichtiger_'
'wanted_'
'ver_'
'ums_'
'ue_'
'ster_'
'sed_'
'round_'
'religious_'
'regards_'
'played_'
'mission_'
'meinem_'
'lle_'
'leisten_'
'immigration_'
'immediately_'
'hoch'
'historical_'
'gs_'
'gi'
'genießen_'
'firms_'
'farmers_'
'everyone_'
'enter_'
'efficiency_'
'eben_'
'difference_'
'darstellt_'
'circumstances_'
'buy_'
'bare_'
'authority_'
'aufgenommen_'
'asset_'
'anti'
'ance_'
'Wettbewerb_'
'Washington_'
'Vorteile_'
'Vertrag_'
'Status_'
'Station_'
'Preise_'
'Position_'
'P'
'Nutzen_'
'Microsoft_'
'Mai_'
'J'
'EN_'
'ECB_'
'Conference_'
'Club_'
'Bad_'
'35_'
', “_'
'“_'
'win_'
'transfer_'
'talk_'
'suggest_'
'students_'
'somit_'
'sieht_'
'section_'
'save_'
'rten_'
'regarding_'
'produced_'
'path_'
'pass_'
'partners_'
'park_'
'officials_'
'networks_'
'mis'
'ments_'
'lösen_'
'loss_'
'kurz_'
'implemented_'
'hotels_'
'genannten_'
'financing_'
'erzielt_'
'equipment_'
'equal_'
'encourage_'
'durchgeführt_'
'degree_'
'construction_'
'chance_'
'becoming_'
'attacks_'
'apply_'
'aim_'
'Zweitens_'
'Waffen_'
'Technologien_'
'Spanish_'
'Person_'
'März_'
'Markt'
'Mail_'
'Juli_'
'Japanese_'
'Italien_'
'Herzen_'
'Griechenland_'
'Great_'
'Finanzierung_'
'Erstens_'
'Centre_'
'Bitte_'
'Bestimmungen_'
'Asien_'
'Article_'
'Anti'
'Anstieg_'
'). _'
'übernehmen_'
'zumindest_'
'weder_'
'vermeiden_'
'variety_'
'treten_'
'treffen_'
'train_'
'tions_'
'ties_'
'task_'
'shared_'
'scientific_'
'schwierig_'
'regulations_'
'priority_'
'priorities_'
'powers_'
'powerful_'
'phone_'
'ngen_'
'minute_'
'message_'
'mehrere_'
'ien_'
'head_'
'handeln_'
'h'
'größere_'
'equipped_'
'entspricht_'
'enen_'
'drive_'
'dialogue_'
'denke_'
'demokratischen_'
'committed_'
'ch'
'beide_'
'außer_'
'analysis_'
'agreed_'
'Währung_'
'Westen_'
'Vielfalt_'
'Tat_'
'Soviet_'
'She_'
'Selbst_'
'Ra'
'Poland_'
'Just_'
'Islamic_'
'Ireland_'
'Grand_'
'Freiheit_'
'Forum_'
'Energie_'
'Directive_'
'Auswahl_'
'Auffassung_'
'Americans_'
'According_'
': '
'31_'
'word_'
'wants_'
'types_'
'travel_'
'transparent_'
'ssen_'
'rural_'
'reichen_'
'property_'
'professional_'
'precisely_'
'practical_'
'participation_'
'par'
'operations_'
'ning_'
'nce_'
'method_'
'mein_'
'maintain_'
'las_'
'kosten_'
'insgesamt_'
'improving_'
'gezeigt_'
'geschlossen_'
'gefunden_'
'folgen_'
'feature_'
'express_'
'establish_'
'erte_'
'easily_'
'diejenigen_'
'developments_'
'core_'
'code_'
'bar'
'attempt_'
'angenommen_'
'Vor'
'Veränderungen_'
'Vereinten_'
'Umgebung_'
'Technologie_'
'Street_'
'Star_'
'Site_'
'Sea_'
'Schwierigkeiten_'
'Reform_'
'Plan_'
'Personal_'
'PC_'
'Nicht_'
'Management_'
'Küche_'
'Inflation_'
'Guest_'
'Geschäfts'
'Do_'
'Co'
'Bereiche_'
': "_'
'2015_'
'1997_'
'* _'
' [_'
'Änderung_'
'® _'
'zunächst_'
'zentrale_'
'zahlreiche_'
'white_'
'weisen_'
'vision_'
'ton_'
'tabled_'
'sse_'
'si_'
'reference_'
'record_'
'quote_'
'procedures_'
'presidential_'
'pleased_'
'pe_'
'ones_'
'normal_'
'nach'
'modified_'
'moderne_'
'lung_'
'leider_'
'kannst_'
'island_'
'instrument_'
'impossible_'
'holiday_'
'historischen_'
'hands_'
'gesetzt_'
'freien_'
'expensive_'
'erwartet_'
'erkennen_'
'draft_'
'deutschen_'
'decline_'
'conference_'
'comprehensive_'
'carry_'
'carbon_'
'cally_'
'bestimmten_'
'Verordnung_'
'Unabhängigkeit_'
'Therefore_'
'Solidarität_'
'Sektor_'
'Punkte_'
'Museum_'
'Most_'
'Lebens'
'Le_'
'IWF_'
'High_'
'Heute_'
'Haupt'
'Gruppen_'
'Global_'
'Besuch_'
'Beitrag_'
'Augen_'
'Amsterdam_'
'Also_'
'A'
'., _'
'.)_'
'%._'
'worth_'
'votes_'
'turned_'
'trading_'
'tor_'
'told_'
'tischen_'
'te'
'stets_'
'starting_'
'sites_'
'ship_'
'reserves_'
'reflect_'
'press_'
'pre_'
'paar_'
'opening_'
'numerous_'
'managed_'
'linked_'
'licher_'
'ität_'
'ine_'
'il'
'hält_'
'export_'
'erfüllen_'
'do'
'details_'
'described_'
'deine_'
'deep_'
'corporate_'
'colleagues_'
'benötigen_'
'begin_'
'begann_'
'appear_'
'amerikanische_'
'ale_'
'akzeptieren_'
'affected_'
'adopt_'
'Woche_'
'Wirtschafts'
'Te'
'Tagesordnung_'
'Stabilität_'
'Sicht_'
'Secondly_'
'Rooms_'
'Revolution_'
'October_'
'Nachfrage_'
'Folge_'
'England_'
'El_'
'Einigung_'
'EZB_'
'Berichte_'
'Barack_'
'Al_'
'4'
'äu'
'zusätzliche_'
'ys_'
'worse_'
'wer_'
'walking_'
'voting_'
'vor'
'territory_'
'taxes_'
'suchen_'
'seek_'
'screen_'
'saw_'
'running_'
'review_'
'res_'
'representatives_'
'relevant_'
'relativ_'
'regionale_'
'president_'
'plant_'
'planet_'
'parliamentary_'
'ons'
'medium_'
'maßnahmen_'
'lichkeit_'
'ley_'
'jeweiligen_'
'ismus_'
'inzwischen_'
'introduced_'
'ierten_'
'hour_'
'heard_'
'green_'
'got_'
'gives_'
'gekommen_'
'easier_'
'durchaus_'
'decade_'
'daily_'
'corruption_'
'competitiveness_'
'beitragen_'
'becomes_'
'außerhalb_'
'atmosphere_'
'ar'
'appears_'
'ang_'
'aimed_'
'Why_'
'Steuer'
'Restaurants_'
'Reserve_'
'R'
'Projekt_'
'Konferenz_'
'Ko'
'Höhe_'
'Human_'
'Haltung_'
'Free_'
'Forschungs'
'Diskussion_'
'Den_'
'Code_'
'Because_'
'Airport_'
'26_'
'2'
'.'
''' _'
'wesentlich_'
'vorgeschlagen_'
'unten_'
'trying_'
'tis'
'terrorist_'
'summer_'
'so'
'smaller_'
'sides_'
'shopping_'
'series_'
'scher_'
'police_'
'per'
'ory_'
'offen_'
'oben_'
'nder_'
'meines_'
'legen_'
'ju'
'investments_'
'increases_'
'improved_'
'haus_'
'freie_'
'floor_'
'erfolgreich_'
'elsewhere_'
'eindeutig_'
'draw_'
'documents_'
'disease_'
'dagegen_'
'continent_'
'consensus_'
'congratulate_'
'compromise_'
'bezüglich_'
'betrachtet_'
'bathroom_'
'associated_'
'assets_'
'advantage_'
'ad_'
'Weltwirtschaft_'
'Vo'
'Versuch_'
'Unterkategorien_'
'Team_'
'Syrien_'
'Spa_'
'Rück'
'Resort_'
'Pro'
'Policy_'
'Per'
'Natur_'
'NEW_'
'N'
'Mexico_'
'Maße_'
'Kommissarin_'
'Google_'
'Gesamt'
'Egypt_'
'Du'
'Dateien_'
'Da'
'Costa_'
'Bra'
'Bewegung_'
'Beschäftigung_'
'Austria_'
'Am'
'Ad'
'3'
'2013_'
'150_'
'überzeugt_'
'ßen_'
'zunehmend_'
'zuletzt_'
'zation_'
'www_'
'wing_'
'wert_'
'weise_'
'warm_'
'vital_'
'verfolgen_'
'vast_'
'useful_'
'um'
'tools_'
'stimmen_'
'sing_'
'sales_'
'ring_'
'refer_'
'raum_'
'pursue_'
'presence_'
'po'
'paper_'
'overall_'
'org_'
'offering_'
'modernen_'
'mit'
'mass_'
'log_'
'letzte_'
'learn_'
'lag_'
'k'
'ja'
'initiatives_'
'immediate_'
'ial_'
'historic_'
'heiten_'
'greatest_'
'goes_'
'gelangen_'
'ganze_'
'gain_'
'g'
'friends_'
'fahren_'
'erung_'
'entsprechenden_'
'el'
'document_'
'district_'
'crucial_'
'controls_'
'contribution_'
'contrary_'
'connected_'
'competitive_'
'clients_'
'chinesische_'
'boost_'
'bewusst_'
'außerdem_'
'assessment_'
'apartments_'
'agriculture_'
'addressed_'
'ably_'
'Wirtschaftswachstum_'
'Welt'
'Urlaub_'
'Unser_'
'Trade_'
'Standards_'
'Sorge_'
'Präsidentschaft_'
'Land'
'Kredit'
'Kolleginnen_'
'Kindern_'
'J_'
'Installation_'
'Innovation_'
'Hälfte_'
'Golf_'
'Globalisierung_'
'Angebot_'
'A5_'
': „_'
'9'
'... _'
')'
'Über'
'tung_'
'to'
'thinking_'
'targets_'
't'
'specifically_'
'signed_'
'serve_'
'ser_'
'seeking_'
'reading_'
'rapidly_'
'profitieren_'
'prime_'
'politisch_'
'phase_'
'owing_'
'otherwise_'
'nächste_'
'nis_'
'nachdem_'
'muß_'
'moral_'
'minimum_'
'limits_'
'laws_'
'largely_'
'ice_'
'hören_'
'helped_'
'hear_'
'halte_'
'glauben_'
'gern_'
'genuine_'
'games_'
'forced_'
'finally_'
'families_'
'eventually_'
'eu'
'era_'
'entweder_'
'einiger_'
'eigentlich_'
'ei_'
'dürfte_'
'dra'
'derartige_'
'darstellen_'
'conclusion_'
'calling_'
'box_'
'bald_'
'applied_'
'amendment_'
']], _'
'Wochen_'
'USS_'
'Strand_'
'Secretary_'
'Risiko_'
'Public_'
'Produktion_'
'Pa'
'Nun_'
'Lu'
'Leute_'
'Le'
'Konflikt_'
'Justice_'
'Januar_'
'Is_'
'Inter'
'Informations'
'IS'
'Health_'
'Gründen_'
'Generation_'
'Gegensatz_'
'Einige_'
'Brazil_'
'Benutzer_'
'Beitritt_'
'Arbeitslosigkeit_'
'Anteil_'
'Angelegenheiten_'
'Amendment_'
'75_'
'32_'
'2012_'
'1980_'
'и'
'zufolge_'
'za'
'wiederum_'
'wider_'
'weeks_'
'verbundenen_'
'une_'
'unbedingt_'
'ultimately_'
'tu'
'transition_'
'separate_'
'sent_'
'science_'
'sanctions_'
'respond_'
'resolve_'
'released_'
'release_'
'relation_'
'reduced_'
'ready_'
'ps_'
'port_'
'planning_'
'payments_'
'no'
'ni_'
'monitoring_'
'models_'
'mittel_'
'migration_'
'mag_'
'lu'
'lies_'
'keiten_'
'jo'
'ite_'
'interesting_'
'interested_'
'industrie_'
'ied_'
'ical_'
'host_'
'holding_'
'hit_'
'größeren_'
'globalization_'
'gen'
'fuel_'
'französischen_'
'followed_'
'finanzielle_'
'film_'
'expression_'
'expressed_'
'establishing_'
'erhöhen_'
'endlich_'
'ell_'
'einander_'
'economics_'
'discussed_'
'determined_'
'cross_'
'cha'
'buffet_'
'broad_'
'bessere_'
'begrüße_'
'aktuelle_'
'Zustimmung_'
'Warum_'
'Vorschriften_'
'Vielleicht_'
'Unfortunately_'
'Umwelt'
'Tu'
'Tra'
'Sozial'
'Saddam_'
'Sache_'
'Regierungs'
'Red_'
'Prodi_'
'Partner_'
'Musik_'
'Monaten_'
'Mo'
'Konzept_'
'Instead_'
'Gegenteil_'
'Financial_'
'Erfahrung_'
'Bis_'
'Behandlung_'
'Bedrohung_'
'Ar'
'Annahme_'
'400_'
'%, _'
'„_'
'Ä'
'went_'
'weg_'
'wa'
'verantwortlich_'
'us'
'urban_'
'tz_'
'ts'
'trägt_'
'track_'
'tool_'
'thereby_'
'struggle_'
'societies_'
'sierung_'
'sa_'
's'
'rapid_'
'post'
'perspective_'
'output_'
'operating_'
'nearly_'
'namely_'
'multi_'
'moving_'
'menu_'
'mention_'
'lo_'
'jüngsten_'
'isierung_'
'innovative_'
'innen_'
'inequality_'
'highest_'
'hi'
'grounds_'
'governance_'
'gelten_'
'fund_'
'fordern_'
'fixed_'
'exclusive_'
'estimated_'
'entwickelten_'
'entstehen_'
'entsprechende_'
'else_'
'dringend_'
'download_'
'difficulties_'
'default_'
'danach_'
'criticism_'
'comfort_'
'color_'
'claims_'
'candidate_'
'camera_'
'bilden_'
'beste_'
'behavior_'
'begrüßen_'
'barkeit_'
'assistance_'
'army_'
'approved_'
'announced_'
'anderem_'
'ahead_'
'Zunächst_'
'Wohn'
'Wohlstand_'
'Video_'
'Turkish_'
'Trotz_'
'Tri'
'Transparenz_'
'Su'
'Sterne_'
'See'
'Royal_'
'Robert_'
'RE'
'Neu'
'Nachdem_'
'Mitgliedschaft_'
'Mer'
'Meine_'
'Irland_'
'Initiativen_'
'He'
'Grund'
'Entschließung_'
'Einkommen_'
'Eindruck_'
'Ebenso_'
'Despite_'
'Anstrengungen_'
'.._'
'+_'
'" (_'
'äre_'
'Öl'
'wählen_'
'whom_'
'welfare_'
'verlassen_'
'tro'
'treated_'
'television_'
'summit_'
'strategies_'
'spirit_'
'speaking_'
'skills_'
'sitting_'
'saving_'
'raised_'
'permanent_'
'outcome_'
'middle_'
'merely_'
'manage_'
'lernen_'
'kaufen_'
'introduce_'
'intended_'
'integrated_'
'industries_'
'höher_'
'hundreds_'
'hin'
'helping_'
'großes_'
'gleiche_'
'generally_'
'gelegen_'
'gave_'
'führte_'
'flight_'
'fields_'
'fe_'
'extreme_'
'exist_'
'evening_'
'erhöht_'
'erfordert_'
'ene_'
'eingesetzt_'
'dollars_'
'der'
'da'
'cutting_'
'cover_'
'continued_'
'closely_'
'click_'
'che'
'break_'
'biggest_'
'back'
'accession_'
'Zentralbanken_'
'Zentralbank_'
'Wer_'
'Volkswirtschaften_'
'Vergleich_'
'Vereinbarung_'
'Stimme_'
'Standard_'
'Sinne_'
'Produktions'
'Open_'
'Online_'
'Nice_'
'Nachbarn_'
'Methode_'
'Ist_'
'Islam_'
'In'
'IP_'
'Home_'
'Hinsicht_'
'Gäste_'
'Gebieten_'
'Falle_'
'Erfahrungen_'
'Ent'
'Do'
'Depression_'
'Christian_'
'Bürgern_'
'Bundes'
'Bilder_'
'Bank'
'Arbeits'
'Air_'
'39_'
'1996_'
' -, _'
'—_'
'ı'
'überall_'
'zo'
'ys'
'vorhanden_'
'victims_'
'veröffentlicht_'
'unbe'
'uf'
'tried_'
'tomorrow_'
'tive_'
'thanks_'
'suggests_'
'suffering_'
'staatliche_'
'st'
'slow_'
'sho'
'ser'
'seien_'
'rer_'
'regionalen_'
'reception_'
'rd_'
'purchase_'
'prosperity_'
'programm_'
'primarily_'
'pre'
'ping_'
'parents_'
'ourselves_'
'obvious_'
'ng'
'möglichen_'
'musste_'
'morgen_'
'mid_'
'met_'
'mark_'
'loans_'
'listed_'
'laid_'
'laden_'
'j_'
'ium_'
'individuals_'
'independence_'
'icht_'
'ht'
'himself_'
'granted_'
'gold_'
'gesehen_'
'funktioniert_'
'fellow_'
'fe'
'fand_'
'extension_'
'europäischer_'
'erlaubt_'
'enormous_'
'ence_'
'emphasis_'
'earlier_'
'divided_'
'display_'
'dennoch_'
'criteria_'
'constitutional_'
'conflicts_'
'conclude_'
'comments_'
'collapse_'
'ches_'
'charged_'
'betrachten_'
'berücksichtigt_'
'benutzt_'
'bear_'
'baren_'
'automatisch_'
'arms_'
'achten_'
'absolutely_'
'Zweifel_'
'Wasser'
'Vorteil_'
'Volk_'
'Vertreter_'
'U'
'Thus_'
'Stärkung_'
'Strategien_'
'Steuern_'
'Square_'
'Sorgen_'
'Sonder'
'Sicherheits'
'Republik_'
'Or'
'NA'
'Monat_'
'Medien_'
'Me'
'Liberalisierung_'
'Landwirtschaft_'
'Krankheiten_'
'Ju'
'Instrument_'
'Insel_'
'Industrie'
'Homepage_'
'Erachtens_'
'Emissionen_'
'Einrichtungen_'
'Einrichtung_'
'Dr_'
'Dennoch_'
'Business_'
'Breakfast_'
'Basis_'
'Arbeitsplätze_'
'Another_'
'Angriff_'
'AIDS_'
'195'
'. (_'
', "_'
'ät_'
'­_'
'wollte_'
'willing_'
'waste_'
'verloren_'
'understanding_'
'technological_'
'swimming_'
'sufficient_'
'street_'
'staatlichen_'
'sm_'
'shift_'
'schwer_'
'schneller_'
'richtige_'
'relatively_'
'relating_'
'relate_'
'qua'
'protected_'
'practices_'
'pour_'
'placed_'
'persönlichen_'
'ort_'
'operation_'
'olitik_'
'neues_'
'millions_'
'membership_'
'measure_'
'lo'
'll'
'lagen_'
'institutional_'
'ier'
'identity_'
'hol'
'har'
'happy_'
'happened_'
'gs'
'gleich'
'ger'
'ft'
'fort'
'formal_'
'folgenden_'
'flexible_'
'fish_'
'fine_'
'fail_'
'examples_'
'enormen_'
'elected_'
'dly_'
'directives_'
'deutsche_'
'deliver_'
'contain_'
'compared_'
'coffee_'
'ck'
'character_'
'changing_'
'bonds_'
'bly_'
'besondere_'
'balanced_'
'aten_'
'article_'
'animals_'
'anderes_'
'actual_'
'Wettbewerbsfähigkeit_'
'Then_'
'Schul'
'Ro'
'Rezession_'
'Privat'
'Pe'
'Netherlands_'
'Na'
'NE'
'MySQL_'
'Monetary_'
'Mitte_'
'Militär'
'Michael_'
'Mi'
'Mal'
'Lo'
'Ku'
'Klicken_'
'Irish_'
'ID_'
'Hoffnung_'
'Her'
'Han'
'Ger'
'Friedens'
'Film_'
'Euro'
'Entwicklungsländer_'
'Eastern_'
'Democrats_'
'Bio'
'Barroso_'
'Ausland_'
'Aspekt_'
'Abschluss_'
'36_'
'1995_'
'1989_'
'01_'
'0'
' ... _'
'а'
'wor'
'wodurch_'
'war'
'voters_'
'vo'
'vertreten_'
'verpflichtet_'
'van_'
'unto_'
'unterschiedlichen_'
'unless_'
'unde'
'tät_'
'truly_'
'transparency_'
'tische_'
'theory_'
'tests_'
'ten'
'supports_'
'supporting_'
'substantial_'
'su'
'stress_'
'stated_'
'standing_'
'significantly_'
'sicherzustellen_'
'schließen_'
'says_'
'rung_'
'root_'
'revenue_'
'resulting_'
'restrictions_'
'rea'
'published_'
'provision_'
'promoting_'
'processes_'
'presidency_'
'player_'
'ou'
'oral_'
'numbers_'
'nte_'
'nisse_'
'nationaler_'
'named_'
'meaning_'
'materials_'
'looks_'
'liberal_'
'lesen_'
'leads_'
'latter_'
'kennen_'
'io_'
'introduction_'
'implement_'
'ian_'
'her'
'guidelines_'
'griechischen_'
'gerecht_'
'format_'
'flexibility_'
'fire_'
'finanziellen_'
'ff'
'feststellen_'
'factors_'
'extended_'
'expectations_'
'exactly_'
'ere_'
'ep'
'entscheiden_'
'email_'
'ele'
'dynamic_'
'disc'
'denken_'
'delegation_'
'decide_'
'criminal_'
'crime_'
'courses_'
'collective_'
'claim_'
'ci'
'calls_'
'berg_'
'bars_'
'ard_'
'ank'
'angeht_'
'alt'
'allowing_'
'ages_'
'agencies_'
'acht_'
'absolute_'
'Your_'
'Währungs'
'Unternehmens'
'Teilen_'
'Standpunkt_'
'Stadt'
'Spieler_'
'Ri'
'Regel_'
'Realität_'
'RI'
'RA'
'Projekte_'
'Post'
'Polen_'
'Po'
'Nachfolgend_'
'Modell_'
'Mitteilung_'
'Mat'
'MA'
'Konflikte_'
'Kompromiss_'
'Jo'
'Ja'
'Handels'
'Gesundheits'
'Firmen_'
'Fe'
'Ereignisse_'
'EADS_'
'Dar'
'Congress_'
'Che'
'CA'
'Best_'
'Bas'
'Aufgrund_'
'Apartments_'
'95_'
'8'
'13'
','
''._'
' –, _'
' = _'
'с'
'ée_'
'ären_'
'  _'
'zimmer_'
'zeit'
'za_'
'yourself_'
'wo'
'wirtschaftlicher_'
'wichtigste_'
'weiterer_'
'wei'
'weg'
'voice_'
'victory_'
'verringern_'
'vergessen_'
'vehicles_'
've'
'up'
'unlikely_'
'ungs'
'umgesetzt_'
'umfassenden_'
'ti_'
'tasks_'
'super'
'sun_'
'starken_'
'spread_'
'species_'
'sovereign_'
'southern_'
'sources_'
'someone_'
'ski_'
'signal_'
'shops_'
'seven_'
'seriously_'
'selection_'
'selbstverständlich_'
'russischen_'
'relative_'
'reaching_'
'prüfen_'
'profit_'
'picture_'
'physical_'
'partly_'
'offensichtlich_'
'occur_'
'niemals_'
'militärische_'
'mar'
'maintained_'
'läuft_'
'länger_'
'link_'
'limit_'
'letztlich_'
'leaving_'
'launched_'
'launch_'
'laufen_'
'languages_'
'langfristige_'
'langen_'
'l'
'komplett_'
'keits'
'jener_'
'ionen_'
'improvements_'
'iger_'
'he'
'grundlegende_'
'goals_'
'gli'
'geändert_'
'gemäß_'
'garden_'
'gar'
'exercise_'
'euch_'
'et'
'ein'
'ehemaligen_'
'duty_'
'du'
'dir_'
'detailed_'
'database_'
'danger_'
'cuts_'
'contrast_'
'contract_'
'contemporary_'
'combination_'
'closer_'
'causes_'
'burden_'
'born_'
'bodies_'
'bestimmte_'
'ber'
'benutzen_'
'ben'
'behandelt_'
'anyone_'
'ang'
'all'
'accounts_'
'accepted_'
'absence_'
'Y'
'Wähler_'
'Worte_'
'Wein'
'Wege_'
'Verhältnis_'
'Verhalten_'
'UNO_'
'Time_'
'Ste'
'Sehr_'
'Sehenswürdigkeiten_'
'San'
'Rotary_'
'Prioritäten_'
'Pi'
'Perhaps_'
'No'
'Neben_'
'NI_'
'MI'
'Leistung_'
'Last_'
'Kunst_'
'Kombination_'
'Kas'
'James_'
'III_'
'HIV_'
'Grenze_'
'God_'
'Gebäude_'
'Foreign_'
'Forderung_'
'Familien_'
'Entwicklungsländern_'
'Beschreibung_'
'Aufbau_'
'Atom'
'Arten_'
'Argentina_'
'Angst_'
'Anfrage_'
'Amerikaner_'
'Alliance_'
'Agreement_'
'AR'
'33_'
'30'
'1'
'т'
'ó'
'ß'
'Öl_'
'Ökonomen_'
'zurückge'
'zero_'
'wrote_'
'write_'
'westlichen_'
'vollständig_'
'une'
'umfassende_'
'ual_'
'tä'
'traffic_'
'survive_'
'surrounding_'
'supposed_'
'stärken_'
'sts_'
'ss'
'spent_'
'signs_'
'riesigen_'
'resort_'
'represents_'
'represent_'
'rasch_'
'raising_'
'putting_'
'prospects_'
'promotion_'
'producers_'
'pro'
'oren_'
'ol'
'nts_'
'niemand_'
'mussten_'
'mp'
'motion_'
'ming_'
'mehreren_'
'machte_'
'ma'
'ld_'
'ked_'
'implementing_'
'housing_'
'historische_'
'hardly_'
'gone_'
'gestimmt_'
'geschehen_'
'garantiert_'
'gap_'
'führenden_'
'fähigkeit_'
'functions_'
'founded_'
'focused_'
'faces_'
'faced_'
'extensive_'
'except_'
'establishment_'
'erhält_'
'erfolgen_'
'entsprechend_'
'enterprises_'
'ensuring_'
'echte_'
'discussions_'
'differences_'
'desire_'
'deeply_'
'darunter_'
'dank_'
'conventional_'
'continues_'
'constitution_'
'considerable_'
'completed_'
'communities_'
'cast_'
'car'
'bt_'
'bottom_'
'bestand_'
'beginnen_'
'ban_'
'aufzunehmen_'
'au'
'asking_'
'arrangements_'
'angezeigt_'
'ad'
'Ziel'
'Wohl'
'Win'
'Wahl'
'Voraussetzungen_'
'Tre'
'Transport_'
'Teile_'
'THE_'
'Straße_'
'Staats'
'Sta'
'Sprache_'
'Si'
'Schulden'
'Sarkozy_'
'SA'
'Regime_'
'Re'
'Pre'
'Organisationen_'
'Option_'
'Old_'
'Oder_'
'Männer_'
'Kapital_'
'Inseln_'
'Hu'
'Hotel'
'Hong_'
'Ho'
'Haushalt_'
'Gold_'
'Fähigkeit_'
'Foundation_'
'Ex'
'Every_'
'Erholung_'
'Erde_'
'El'
'Du_'
'Drittens_'
'Denn_'
'David_'
'Ca'
'Brasilien_'
'Beispiele_'
'Bau'
'Assad_'
'Aspekte_'
'Asian_'
'Anerkennung_'
' /_'
'о'
'ür'
'über'
'ón_'
'és_'
'ätzen_'
'á_'
'Über_'
'zusätzlich_'
'zurück'
'zahlreichen_'
'ya_'
'ya'
'wirtschaft_'
'window_'
'widely_'
'whatever_'
'wenigen_'
'warming_'
'w'
'ving_'
'vieler_'
'verstärkt_'
'verlieren_'
'ven_'
'va_'
'usw_'
'ures_'
'unver'
'unable_'
'ub'
'u'
'täglich_'
'tz'
'treaty_'
'tradition_'
'terrace_'
'ter'
'studies_'
'stone_'
'ssi'
'spacious_'
'spa'
'sieben_'
'shower_'
'ships_'
'select_'
'seitens_'
'sa'
'recognize_'
'rat'
'r'
'producing_'
'pp'
'policymakers_'
'platz_'
'peaceful_'
'participate_'
'ordnung_'
'opposed_'
'omi'
'ok_'
'north_'
'neither_'
'ned_'
'nachhaltige_'
'militärischen_'
'mi'
'maximum_'
'machine_'
'losses_'
'lokale_'
'lessons_'
'len'
'labour_'
'konzentrieren_'
'kle'
'jährlich_'
'ji'
'intervention_'
'initial_'
'ing'
'improvement_'
'höhere_'
'hundred_'
'household_'
'gezwungen_'
'getroffen_'
'gesprochen_'
'ges_'
'genannt_'
'gefallen_'
'flows_'
'fla'
'fisheries_'
'firm_'
'figures_'
'faster_'
'fa'
'eye_'
'extend_'
'erten_'
'ersch'
'ern'
'erk'
'equally_'
'entschieden_'
'entry_'
'ellen_'
'element_'
'elegant_'
'eight_'
'drugs_'
'discuss_'
'demokratische_'
'defense_'
'deaths_'
'dealing_'
'daten_'
'cuisine_'
'contracts_'
'compatible_'
'communications_'
'commitments_'
'coal_'
'charges_'
'cat'
'britische_'
'books_'
'bestimmt_'
'beschlossen_'
'benötigt_'
'bei'
'beds_'
'beachten_'
'ba'
'außerordentlich_'
'automatically_'
'ausschließlich_'
'as'
'air'
'agen_'
'achieving_'
'accordance_'
']] [[_'
'Zur_'
'Zentral'
'Verwaltungs'
'Verwaltung_'
'Verpflichtung_'
'Un'
'Umständen_'
'Um'
'Tod_'
'Times_'
'Systeme_'
'Suche_'
'Sieg_'
'See_'
'Roman_'
'Q_'
'PT_'
'Norden_'
'Name_'
'Mar'
'Macht'
'Live_'
'Leistungen_'
'Kyoto_'
'Kong_'
'Klimawandel_'
'Kinder'
'Jetzt_'
'Jahres'
'Indian_'
'Handels_'
'Hand'
'Groß'
'Gro'
'Gra'
'Gesellschaften_'
'Gerichts'
'Frankfurt_'
'Forderungen_'
'Flug'
'February_'
'Fahr'
'Entwicklungs'
'Dra'
'De_'
'Copenhagen_'
'Click_'
'Bus'
'Bu'
'Bre'
'Both_'
'Board_'
'Berichts_'
'Ban'
'Auto'
'Anforderungen_'
'Andere_'
'Agenda_'
'48_'
'25'
'2014_'
'', _'
' -- _'
'är'
'Übereinstimmung_'
'zing_'
'widespread_'
'weak_'
'wall_'
'wages_'
'verfahren_'
'und'
'turning_'
'translation_'
'touch_'
'ti'
'threats_'
'th'
'talking_'
'strategischen_'
'stands_'
'sort_'
'smoking_'
'sis_'
'siehe_'
'sicherlich_'
'schlagen_'
'scheme_'
'sal'
'rt'
'reservation_'
'regulatory_'
'punkt_'
'proved_'
'por_'
'piece_'
'photos_'
'partnership_'
'para_'
'organisations_'
'opened_'
'ongoing_'
'older_'
'nge_'
'nes_'
'nennen_'
'ms_'
'methods_'
'memory_'
'manchmal_'
'länder_'
'ln_'
'legt_'
'learning_'
'ld'
'lage_'
'kommenden_'
'king_'
'ker'
'keinerlei_'
'iti'
'internationaler_'
'installation_'
'id_'
'hrt_'
'hot_'
'hauptsächlich_'
'guter_'
'gre'
'gerne_'
'französische_'
'felt_'
'father_'
'eri'
'entered_'
'enk'
'ended_'
'ena'
'employees_'
'einzigen_'
'ef'
'driving_'
'destruction_'
'defined_'
'debates_'
'damals_'
'counter_'
'combating_'
'combat_'
'co'
'cation_'
'beziehen_'
'betreffen_'
'bath_'
'auszu'
'ausdrücklich_'
'aus'
'aufge'
'at'
'animal_'
'ale'
'al'
'Zeit'
'Za'
'Worten_'
'Wissen_'
'West'
'Wegen_'
'Vietnam_'
'Vielzahl_'
'Ver'
'UN'
'Tro'
'Tal'
'Ta'
'TA'
'Strom'
'Stimmen_'
'Stand_'
'Sol'
'Sinn_'
'Shi'
'Schlüssel'
'Santa_'
'Sand'
'Rezeption_'
'Rest_'
'Regierungschefs_'
'Rede_'
'Reaktion_'
'Prä'
'Private_'
'Phase_'
'PHP_'
'Other_'
'Ohne_'
'Mont'
'Mexiko_'
'Mag'
'Located_'
'Leider_'
'Las_'
'Kultur'
'Kritik_'
'King_'
'Jeder_'
'Hoch'
'Hause_'
'Grad_'
'Gleichzeitig_'
'Gi'
'Formen_'
'Flüchtlinge_'
'Finanz'
'Falls_'
'Faktoren_'
'Fach'
'Deutsche_'
'Dann_'
'DI'
'Cho'
'Chancen_'
'Ce'
'Car'
'Binnenmarkt_'
'Bild'
'Ber'
'Aufenthalt_'
'Anspruch_'
'Altstadt_'
'Alternative_'
'Alt'
'Abend_'
'AT'
'AC'
'64_'
'194'
'10'
'. – _'
'è'
'ähnliche_'
'Überwachung_'
'zusammenge'
'zugleich_'
'wind_'
'welches_'
'verlangt_'
'urgent_'
'unternommen_'
'unseres_'
'uner'
'umzusetzen_'
'tte_'
'truth_'
'trouble_'
'trends_'
'tourist_'
'sugar_'
'ständig_'
'stra'
'sto'
'stimulus_'
'steigen_'
'stations_'
'sovereignty_'
'sought_'
'solcher_'
'season_'
'scope_'
'roughly_'
'ries_'
'responsibilities_'
'remember_'
'relaxing_'
'relax_'
'referred_'
'ref'
'reasonable_'
'rd'
'proper_'
'print_'
'pictures_'
'pi'
'phrase_'
'photo_'
'persons_'
'pa'
'organizations_'
'offiziellen_'
'nu'
'nt'
'ni'
'nan'
'ms'
'mountain_'
'mode_'
'mo_'
'min_'
'meetings_'
'mechanism_'
'markt_'
'manner_'
'manche_'
'lp'
'love_'
'kürzlich_'
'kitchen_'
'kan'
'je'
'ition_'
'ish_'
'ir_'
'ingly_'
'ine'
'ia'
'hy'
'humanitarian_'
'honourable_'
'heutigen_'
'happens_'
'go'
'gezogen_'
'geschützt_'
'gains_'
'führende_'
'früher_'
'frage_'
'fighting_'
'experts_'
'ete_'
'estate_'
'est'
'erscheint_'
'ergeben_'
'enorme_'
'einge'
'distributed_'
'disa'
'dinner_'
'dia'
'device_'
'ded_'
'declared_'
'cycle_'
'crises_'
'convinced_'
'cho'
'cheap_'
'cards_'
'capable_'
'buildings_'
'brings_'
'bound_'
'block_'
'bilateral_'
'bewegen_'
'bestehenden_'
'besseren_'
'berücksichtigen_'
'believed_'
'bedarf_'
'argue_'
'arbeitet_'
'anzu'
'alte_'
'alliance_'
'aims_'
'Zweck_'
'YORK_'
'Without_'
'Wissenschaft_'
'Wandel_'
'Unterschied_'
'Trump_'
'Treffen_'
'Those_'
'Thank_'
'Staates_'
'She'
'Sha'
'Seine_'
'Second_'
'SI'
'Rome_'
'Richtlinien_'
'Report_'
'Regulation_'
'Rechtsvorschriften_'
'Pin'
'Noch_'
'Monate_'
'Miss'
'Merkel_'
'Mel'
'Mas'
'Mann_'
'Luft'
'Kriegs'
'Kra'
'Klein'
'Karte_'
'Inhalt_'
'HA'
'Größe_'
'Gespräche_'
'Gemeinsamen_'
'Februar_'
'Familien'
'Energie'
'Earth_'
'Each_'
'Di'
'Dadurch_'
'Computer_'
'Blair_'
'Beweis_'
'Bahn_'
'BO'
'BMW_'
'BA'
'Ausbildung_'
'Au'
'Atmosphäre_'
'Armee_'
'Arabia_'
'Anwendungen_'
'Amt_'
'AM'
'AG_'
'1994_'
'15'
'11'
' €_'
' — _'
'á'
'zusätzlichen_'
'zurückzu'
'xi'
'wünschen_'
'wine_'
'verfolgt_'
'usual_'
'ungefähr_'
'unge'
'umfasst_'
'tt_'
'trotzdem_'
'terror_'
'teilen_'
'technischen_'
'talks_'
'systeme_'
'suffered_'
'succeed_'
'subsidies_'
'stronger_'
'sti'
'statements_'
'square_'
'spielt_'
'south_'
'sky_'
'sion_'
'severe_'
'selected_'
'schools_'
'sar'
'ringen_'
'revolution_'
'reported_'
'remove_'
'remote_'
'records_'
'recorded_'
'recommend_'
'recognise_'
'rechts_'
'race_'
'quarter_'
'promise_'
'pon'
'pollution_'
'perfectly_'
'payment_'
'patients_'
'origin_'
'or'
'on'
'ommen_'
'obviously_'
'obligations_'
'nis'
'nb'
'nar'
'mutual_'
'moved_'
'mm_'
'mittlerweile_'
'miles_'
'marked_'
'manufacturing_'
'lovely_'
'llen_'
'lis'
'leg'
'learned_'
'land'
'ko'
'kation_'
'kamen_'
'ization_'
'instance_'
'inside_'
'igung_'
'höchsten_'
'hostels_'
'hoher_'
'hoffen_'
'hip_'
'ha_'
'gla'
'ged_'
'gan'
'funktionieren_'
'fresh_'
'fordert_'
'fo'
'fle'
'fit_'
'finding_'
'figure_'
'fi'
'fer'
'federal_'
'falsch_'
'expense_'
'exists_'
'ets_'
'es'
'erg'
'erfolgreichen_'
'equality_'
'entirely_'
'en'
'emergency_'
'electoral_'
'einfachen_'
'ee_'
'door_'
'doesn_'
'discover_'
'destroyed_'
'delay_'
'definition_'
'deficits_'
'defence_'
'currencies_'
'covered_'
'couple_'
'consultation_'
'compete_'
'combined_'
'cohesion_'
'coalition_'
'club_'
'chten_'
'chi'
'cars_'
'carefully_'
'button_'
'budgetary_'
'bu'
'bra'
'bo'
'bestimmen_'
'bemüht_'
'beinahe_'
'beaches_'
'bal'
'background_'
'attractive_'
'ating_'
'arrival_'
'ana'
'an'
'agency_'
'advance_'
'administrative_'
'addressing_'
'ach_'
'abge'
'a'
'[[_'
'Zi'
'Zeitraum_'
'Women_'
'Weltbank_'
'War'
'Verpflichtungen_'
'Verkehrs'
'Verbindungen_'
'Untersuchung_'
'Tradition_'
'Tour_'
'Städte_'
'Stu'
'Standard'
'Sprachen_'
'Spiel'
'Spar'
'Safety_'
'SQL_'
'Rückkehr_'
'Regelung_'
'Produkt'
'Pri'
'Ph'
'Patienten_'
'Nutzer_'
'Niveau_'
'Mu'
'Mitteln_'
'Man'
'Madrid_'
'Kommunikations'
'Investoren_'
'Instrumente_'
'Identität_'
'Har'
'Gründe_'
'Good_'
'Gesetz_'
'Find_'
'FR_'
'Europäer_'
'Erd'
'En'
'Durchführung_'
'Diskussionen_'
'Dienste_'
'DA'
'Czech_'
'Can_'
'Boden_'
'Berichterstatterin_'
'Before_'
'Beach_'
'Bau_'
'Bar'
'Aussicht_'
'An'
'192'
'.” _'
', „_'
') '
'”._'
'überprüfen_'
'í'
'ä'
'zuvor_'
'west_'
'welcher_'
'weight_'
'wars_'
'vulnerable_'
'vous_'
'verändert_'
'vere'
'universal_'
'unit_'
'unacceptable_'
'una'
'trend_'
'tionen_'
'tin'
'testing_'
'telephone_'
'teilweise_'
'super_'
'sub'
'stimmt_'
'ste'
'stand'
'sta'
'sofort_'
'smus_'
'sla'
'sized_'
'situations_'
'shape_'
'sets_'
'session_'
'serves_'
'senior_'
'seemed_'
'seats_'
'scheinen_'
'sage_'
'rä'
'rs'
'ro'
'rental_'
'reicht_'
'registered_'
'referendum_'
'rechts'
'rechte_'
'productive_'
'prison_'
'precise_'
'pol'
'plants_'
'passed_'
'parliaments_'
'parliament_'
'packages_'
'out'
'ou_'
'ot_'
'op'
'ob'
'oa'
'notwendigen_'
'nie'
'newly_'
'nen'
'names_'
'möglichkeiten_'
'myself_'
'mostly_'
'miteinander_'
'meist_'
'maintaining_'
'luxury_'
'lten_'
'liquidity_'
'lier'
'li'
'leisure_'
'legitimate_'
'legitimacy_'
'le'
'laut_'
'kämpfen_'
'konkrete_'
'ko_'
'kept_'
'ke'
'jeweils_'
'ized_'
'ities_'
'investieren_'
'intellectual_'
'informiert_'
'impressive_'
'impose_'
'imports_'
'images_'
'ide_'
'ichen_'
'höheren_'
'houses_'
'hn_'
'hinweisen_'
'hau'
'gung_'
'gro'
'golf_'
'gewisse_'
'garantieren_'
'ga'
'fällt_'
'fu'
'ff_'
'ez_'
'explanation_'
'experienced_'
'expansion_'
'exit_'
'exclusively_'
'ex_'
'ete'
'essen_'
'ess_'
'erzielen_'
'erm'
'erinnern_'
'ergreifen_'
'equivalent_'
'emphasise_'
'eln_'
'eingerichtet_'
'dé'
'dritten_'
'don'
'died_'
'di'
'derzeitigen_'
'depend_'
'define_'
'dal'
'contributions_'
'colleague_'
'cing_'
'centuries_'
'category_'
'candidates_'
'cancer_'
'bringing_'
'black_'
'bild_'
'bezahlt_'
'besonderen_'
'bekämpfen_'
'bek'
'battle_'
'ausreichend_'
'auf'
'attempts_'
'appreciate_'
'ani'
'and'
'allgemeinen_'
'aktiv_'
'ain_'
'abroad_'
'Zinsen_'
'Wo'
'Wachstums_'
'Villa_'
'Very_'
'VI'
'Unter'
'Ungleichheit_'
'Trek_'
'To'
'Tier'
'Their_'
'Texte_'
'Tele'
'Sweden_'
'Studie_'
'Stil_'
'Sommer_'
'Sollte_'
'Skype_'
'Se'
'SE'
'Research_'
'Reise'
'Rad'
'Quelle_'
'Prozesses_'
'Priorität_'
'Polizei_'
'Par'
'Opposition_'
'Op'
'OS_'
'OR_'
'Musik'
'Mitgliedern_'
'Mit'
'Men'
'Meiner_'
'Media_'
'Ma'
'MO'
'Los_'
'Lebanon_'
'Kurs_'
'Kräfte_'
'Krankheit_'
'Kontakt_'
'Kommunikation_'
'Klima'
'Ki'
'Kenntnis_'
'Kar'
'Island_'
'Institute_'
'Insbesondere_'
'Ideen_'
'IT'
'Hussein_'
'Hostel_'
'Hel'
'Grundrechte_'
'Green_'
'Go'
'Gewinne_'
'Gesetze_'
'Geschäftsordnung_'
'Gefühl_'
'Gefahren_'
'Gast'
'Fähigkeiten_'
'Funktionen_'
'Front_'
'Fax_'
'Executive_'
'Erwartungen_'
'EL'
'Download_'
'Day_'
'Daten'
'Ci'
'Chi'
'Charta_'
'Bä'
'Buch_'
'Brüssel_'
'Bo'
'Bill_'
'Beschäftigungs'
'Bedenken_'
'Ba'
'Auf'
'Arm'
'Ans'
'Airbus_'
'Administration_'
'@_'
'98_'
'80'
'44_'
'21'
'20'
'1991_'
'191'
'190'
'188'
'186'
'14'
'-'
' ('
'™ _'
'е'
'в'
'ägen_'
'zufrieden_'
'ze'
'yesterday_'
'werk_'
'weltweite_'
'weiteres_'
'wait_'
'vorschlagen_'
'vorgelegt_'
'village_'
'verdient_'
'verbessert_'
'van'
'va'
'ura'
'ur'
'unmöglich_'
'under'
'ums'
'ul_'
'ud'
'trillion_'
'traditionellen_'
'tourism_'
'title_'
'ther_'
'the'
'tel_'
'tal_'
'substances_'
'structures_'
'stre'
'strategische_'
'stellung_'
'stattfinden_'
'starke_'
'sports_'
'sport_'
'solange_'
'sight_'
'sharing_'
'sensitive_'
'sel'
'schönen_'
'schreiben_'
'schlecht_'
'savings_'
'sam'
'sagt_'
'ré'
'runs_'
'rr'
'ro_'
'rn'
'rischen_'
'rest'
'representative_'
'reject_'
'recognition_'
'ral_'
'radical_'
'que'
'protecting_'
'prevention_'
'positions_'
'politisches_'
'pick_'
'phenomenon_'
'paying_'
'outdoor_'
'ora'
'opposite_'
'onen_'
'of'
'o'
'ney_'
'nearby_'
'ne'
'nahme_'
'mindestens_'
'metro_'
'merk'
'mer_'
'medi'
'mechanisms_'
'marketing_'
'lt'
'lly_'
'linie_'
'lands_'
'kurzem_'
'kulturellen_'
'krise_'
'killed_'
'keiner_'
'kar'
'journalists_'
'ist'
'ischer_'
'intensive_'
'institution_'
'install_'
'ingen_'
'informed_'
'ina'
'imagine_'
'igkeit_'
'ig'
'ierungs'
'ho'
'head'
'halt_'
'guide_'
'guaranteed_'
'gruppen_'
'gruppe_'
'grow_'
'greenhouse_'
'gradually_'
'gewissen_'
'gets_'
'geleistet_'
'gegenwärtigen_'
'gained_'
'ga_'
'formed_'
'forget_'
'fantastic_'
'expenditure_'
'erscheinen_'
'ernst_'
'entlang_'
'endorse_'
'elle_'
'ek'
'einzusetzen_'
'einsetzen_'
'eingeführt_'
'einfacher_'
'eg'
'ea'
'drug_'
'disp'
'discrimination_'
'discovered_'
'dienen_'
'devices_'
'determine_'
'detail_'
'depends_'
'demanding_'
'declaration_'
'daraus_'
'cre'
'court_'
'coordination_'
'contributed_'
'contribute_'
'continuing_'
'consequence_'
'confirmed_'
'comment_'
'cken_'
'cas'
'capitalism_'
'booking_'
'bitten_'
'bislang_'
'bildung_'
'bildet_'
'besuchen_'
'bestätigen_'
'bedeuten_'
'bau_'
'asylum_'
'aside_'
'anstatt_'
'angen_'
'ana_'
'ali'
'af'
'acceptable_'
'abhängig_'
'ab'
'Zweiten_'
'Z_'
'Wirkung_'
'Wirklichkeit_'
'Willen_'
'Wettbewerbs'
'Waren_'
'Wahrheit_'
'Vision_'
'Ur'
'Under_'
'Umfeld_'
'Tor'
'Taliban_'
'Süden_'
'Süd'
'Swedish_'
'Summit_'
'Stellen_'
'Start_'
'Sport_'
'Sport'
'Spitze_'
'Sonnen'
'Signal_'
'Serbia_'
'Sa'
'Romania_'
'Reise_'
'Produkt_'
'Pro_'
'Preis'
'Pra'
'Pen'
'Paket_'
'PS'
'Ordnung_'
'Not'
'Nicht'
'Moment_'
'Mitarbeiter_'
'Mission_'
'Ministers_'
'Menge_'
'Massen'
'Leit'
'LE'
'Königreich_'
'Kriterien_'
'Kontroll'
'Kontinent_'
'Kapital'
'Ji'
'Je'
'Israelis_'
'Investitions'
'Hä'
'Hintergrund_'
'Ha'
'Grunde_'
'Gre'
'Gericht_'
'Gemeinschafts'
'Geldpolitik_'
'Foto_'
'Fortschritt_'
'Export'
'Erklärungen_'
'Erfolge_'
'Enjoy_'
'Engagement_'
'Ein'
'EC_'
'Definition_'
'Data_'
'Cor'
'Con'
'Charakter_'
'CO'
'Budget_'
'Book_'
'Bon'
'Beziehung_'
'Beihilfen_'
'Balkan_'
'Auge_'
'Atlantic_'
'Ale'
'Ag'
'> _'
': “_'
'800_'
'5'
'1970_'
'06_'
'," _'
'übrigen_'
'öffentlich_'
'ö'
'é'
'zieren_'
'zentrum_'
'zentralen_'
'ystem_'
'wesentlichen_'
'wer'
'wave_'
'wahren_'
'wachsen_'
'vors'
'vir'
'vier'
'verlangen_'
'upper_'
'unabhängig_'
'ul'
'tter'
'tri'
'tor'
'tly_'
'teil_'
'suite_'
'suffer_'
'spa_'
'sonst_'
'sold_'
'shi'
'sha'
'sen'
'se'
'sbe'
'sb'
'rweise_'
'rta'
'roads_'
'richten_'
'ren'
'rejected_'
'regular_'
'reden_'
'railway_'
'radio_'
'quick_'
'pt_'
'profits_'
'preis'
'praktisch_'
'pra'
'playing_'
'planned_'
'peri'
'ped_'
'paragraph_'
'pan'
'ori'
'oni'
'ona_'
'ona'
'nta'
'naturally_'
'nahmen_'
'möglichst_'
'mögen_'
'my'
'mus'
'mu'
'minority_'
'metres_'
'menschliche_'
'mandate_'
'lokalen_'
'lit'
'lin_'
'li_'
'lesson_'
'lending_'
'leiden_'
'kon'
'kinds_'
'keeping_'
'ka'
'jungen_'
'junge_'
'jenen_'
'itu'
'israelischen_'
'is'
'ire_'
'ins'
'imposed_'
'implications_'
'ill_'
'ile_'
'ik_'
'ians_'
'hostel_'
'hn'
'hing_'
'ha'
'guarantees_'
'greatly_'
'gewählt_'
'gestalten_'
'geo'
'gegenwärtig_'
'ge'
'führung_'
'furniture_'
'fruit_'
'forum_'
'finanzieren_'
'fewer_'
'festgestellt_'
'fer_'
'false_'
'fairly_'
'eyes_'
'ey_'
'existence_'
'eten_'
'erwähnt_'
'erfahren_'
'era'
'er'
'entf'
'ent'
'eni'
'emi'
'ement_'
'ely_'
'elo'
'eingehen_'
'ei'
'driven_'
'dramatic_'
'diplomatic_'
'dining_'
'dient_'
'deserves_'
'des'
'defend_'
'deb'
'dar'
'customer_'
'credibility_'
'cra'
'cooperate_'
'consideration_'
'considerably_'
'confirm_'
'command_'
'classes_'
'cher'
'channels_'
'ce'
'cash_'
'briefly_'
'bi'
'bezahlen_'
'bez'
'beruht_'
'belief_'
'bedroom_'
'bed'
'aut_'
'ausgezeichneten_'
'ative_'
'association_'
'armed_'
'arbeits'
'apart_'
'ans'
'angeboten_'
'alt_'
'ai'
'affects_'
'ae'
'ach'
'accompanied_'
'accessible_'
'abgeschlossen_'
'abe_'
']]_'
'Zwar_'
'Wunsch_'
'Web'
'Wall_'
'Völker_'
'Verträge_'
'Verbraucher'
'Verb'
'Val'
'VO'
'Two_'
'Test_'
'Teil'
'TNG_'
'Strukturen_'
'Strategy_'
'Stein'
'Staats_'
'Sprach'
'Speicher'
'Son'
'Sohn_'
'Sitzung_'
'Schäden_'
'Schulen_'
'Schi'
'Sanktionen_'
'Rom'
'Regelungen_'
'Puerto_'
'Pu'
'Protokoll_'
'Problems_'
'Premierminister_'
'Paul_'
'Palace_'
'Over_'
'Nor_'
'Non_'
'Ni'
'Nachrichten_'
'Mittelmeer_'
'Mindest'
'Location_'
'Li'
'League_'
'Lassen_'
'Labour_'
'LI'
'LA'
'Kur'
'Kredite_'
'Kor'
'Klimaanlage_'
'Kirk_'
'Ke'
'Katastrophe_'
'Ka'
'JavaScript_'
'Israels_'
'IR'
'IN'
'Hinweis_'
'Hin'
'Hilfs'
'Hauptstadt_'
'Handeln_'
'Grenz'
'Glück_'
'Glaubwürdigkeit_'
'Gen'
'Geist_'
'Form'
'Firma_'
'Fi'
'Facilities_'
'FA'
'Express_'
'Environment_'
'Entwurf_'
'Entscheidungsträger_'
'End'
'Einheit_'
'Dor'
'Dimension_'
'Deutschlands_'
'Del'
'Dan'
'Cuba_'
'Control_'
'Chile_'
'Check_'
'Cameron_'
'CAMBRIDGE_'
'Bus_'
'Brussels_'
'Brexit_'
'Botschaft_'
'Bewertung_'
'Bedürfnisse_'
'Bay_'
'Bade'
'Außen'
'Ausweitung_'
'Austrian_'
'Ausnahme_'
'Aufgaben_'
'Association_'
'Argentinien_'
'Apartment_'
'Antrag_'
'Allgemeinen_'
'Akteure_'
'Ac'
'Absicht_'
'Abschließend_'
'3D_'
'22'
'1992_'
'05_'
'03_'
'.“_'
'...'
' > _'
'č_'
'übertragen_'
'ör'
'öffnen_'
'ía_'
'zuzu'
'zustimmen_'
'zu'
'zi'
'ws_'
'wollten_'
'wesentliche_'
'welt'
'weiter'
'wan'
'wagen_'
'vorgesehen_'
'vorge'
'virus_'
'verwende_'
'verfügbar_'
'vehicle_'
'val'
'ute'
'ust'
'update_'
'unfortunately_'
'una_'
'tzen_'
'typical_'
'trag'
'traditionelle_'
'tief_'
'tend_'
'swe'
'sur_'
'supplies_'
'stri'
'stayed_'
'stance_'
'stag'
'spoke_'
'soft_'
'sk'
'sichern_'
'sektor_'
'sei'
'schriftlich_'
'sation_'
'russische_'
'rum_'
'rufen_'
'ru'
'rti'
'rie'
'ri_'
'revenues_'
'returned_'
'remind_'
'remained_'
'refugee_'
'qualität_'
'purposes_'
'prä'
'propose_'
'propaganda_'
'profound_'
'processing_'
'poorest_'
'pointed_'
'plenty_'
'platform_'
'pla'
'patterns_'
'pattern_'
'para'
'palästinensischen_'
'owned_'
'over'
'osi'
'ordinary_'
'opinions_'
'offenen_'
'occasions_'
'nötig_'
'normalerweise_'
'none_'
'nl'
'ner'
'nd'
'nc'
'mögliche_'
'museums_'
'multiple_'
'movements_'
'motor'
'monitor_'
'momentan_'
'ministers_'
'micro'
'mbi'
'luxurious_'
'looked_'
'logical_'
'listen_'
'lig'
'ließ_'
'künftige_'
'kulturelle_'
'ktion_'
'kostet_'
'kor'
'konzentriert_'
'kleiner_'
'klare_'
'ki'
'kat'
'joined_'
'islands_'
'investiert_'
'initially_'
'inevitable_'
'incentives_'
'import_'
'immigrants_'
'ility_'
'identified_'
'http_'
'hs_'
'hr'
'hon'
'hl_'
'hilft_'
'hervor_'
'helps_'
'heavy_'
'happening_'
'hand'
'gutes_'
'größer_'
'grundlegenden_'
'gor'
'gewährleistet_'
'gestärkt_'
'gender_'
'gegründet_'
'gefordert_'
'fy_'
'früheren_'
'freue_'
'freiheit_'
'frei'
'favor_'
'falling_'
'explain_'
'ethnic_'
'erleben_'
'erinnert_'
'erforderlichen_'
'erfolgt_'
'equity_'
'entitled_'
'engineering_'
'enables_'
'eller_'
'eliminate_'
'eli'
'ek_'
'einzu'
'ehen_'
'effectiveness_'
'ed'
'economists_'
'drink_'
'diverse_'
'dishes_'
'didn_'
'derer_'
'den'
'delivered_'
'danke_'
'dahin_'
'cy'
'ction_'
'cted_'
'cor'
'controlled_'
'connections_'
'conducted_'
'conclusions_'
'compensation_'
'client_'
'classic_'
'chosen_'
'breiten_'
'breite_'
'bor'
'bon'
'blood_'
'bility_'
'behandeln_'
'begonnen_'
'availability_'
'außen_'
'aufnehmen_'
'assume_'
'art'
'arguments_'
'argued_'
'are'
'arabischen_'
'ara'
'appointed_'
'ano'
'ancient_'
'anbieten_'
'amounts_'
'allies_'
'allgemeine_'
'allgemein_'
'ah'
'advantages_'
'adoption_'
'adjustment_'
'ade_'
'Ziffer_'
'Zeichen_'
'Within_'
'Wieder'
'Weiter'
'WLAN_'
'WI'
'Vom_'
'Vienna_'
'Verteidigung_'
'Verständnis_'
'Verein'
'Verbesserungen_'
'Unternehmens_'
'Universität_'
'Taiwan_'
'Stadtzentrum_'
'Sowjetunion_'
'Selbst'
'Schluss_'
'Sat'
'Rückgang_'
'Roma_'
'Referendum_'
'Rechts_'
'Raum'
'Q'
'Problemen_'
'Port'
'Plaza_'
'Player_'
'Peter_'
'Paper_'
'Pan'
'Palästinenser_'
'Palestinians_'
'Palestine_'
'Page_'
'Pact_'
'Or_'
'Open'
'Ob'
'ON'
'Nord'
'Nevertheless_'
'Muslims_'
'Munich_'
'Mittel'
'Mess'
'Mari'
'Mao_'
'Malaysia_'
'Mac'
'Lin'
'La'
'Kurz_'
'Kurz'
'Kunst'
'Korruption_'
'Kopf_'
'Kind_'
'Kil'
'Key'
'Java_'
'Ja_'
'Internationalen_'
'Ins'
'Innovationen_'
'Inflations'
'Hy'
'Hill_'
'Gu'
'GmbH_'
'Gleichgewicht_'
'Gerichtshof_'
'Garten_'
'Frankreichs_'
'Firstly_'
'Film'
'Far'
'Fa'
'Entwicklungen_'
'Ents'
'Energien_'
'Einklang_'
'Ei'
'ER'
'Drittel_'
'Cap'
'CIA_'
'CAN'
'Bürger'
'Bor'
'Besides_'
'Ava'
'Angaben_'
'Analyse_'
'Ak'
'Agency_'
'Adresse_'
'Abgeordnete_'
'://_'
'52_'
'42_'
'37_'
'12'
'.  _'
'."_'
'-/_'
' € _'
'д'
'ün'
'ührung_'
'öl'
'Ägypten_'
'zust'
'zugunsten_'
'zuerst_'
'zit'
'yes_'
'worst_'
'worry_'
'wonach_'
'wirksam_'
'wireless_'
'wieder'
'wi'
'weather_'
'weapon_'
'we'
'warten_'
'wage_'
'wachsenden_'
'wachsende_'
'vorstellen_'
'vorgesehenen_'
'voll'
'verurteilt_'
'verpflichten_'
'urs_'
'uren_'
'underlying_'
'umfangreiche_'
'uh'
'uch'
'typically_'
'turns_'
'tter_'
'totally_'
'topic_'
'tent'
'technische_'
'surrounded_'
'sur'
'substance_'
'su_'
'sser'
'spricht_'
'sprach_'
'spot_'
'somewhat_'
'solely_'
'sol'
'sme'
'sinnvoll_'
'si'
'schwierigen_'
'schnelle_'
'rose_'
'rop'
'rig'
'richtigen_'
'resolved_'
'resistance_'
'residential_'
'reply_'
'removed_'
'regimes_'
'reflects_'
'ree'
'recession_'
'rec'
'reagieren_'
'pushed_'
'properly_'
'prop'
'promises_'
'prior_'
'preis_'
'potentially_'
'pleasure_'
'personally_'
'permitted_'
'percent_'
'pension_'
'parallel_'
'operate_'
'oma'
'ol_'
'oe'
'occasion_'
'nte'
'noted_'
'nnen_'
'nights_'
'müssten_'
'müsste_'
'mö'
'multilateral_'
'mo'
'mini'
'migrants_'
'mental_'
'mel'
'me'
'match_'
'losing_'
'lived_'
'lin'
'lie_'
'les'
'leistung_'
'kurze_'
'kt'
'keineswegs_'
'italienischen_'
'ir'
'interface_'
'interessiert_'
'indicate_'
'index_'
'in'
'ign'
'ight_'
'ien'
'ian'
'höchste_'
'hur'
'hu'
'hren_'
'homes_'
'grown_'
'globalisation_'
'glo'
'geöffnet_'
'gering_'
'genauso_'
'gelegt_'
'gele'
'gegenwärtige_'
'gang_'
'gal'
'fun_'
'fore'
'foot_'
'flow_'
'flat_'
'feld_'
'fel'
'fehlt_'
'fees_'
'fashion_'
'faith_'
'excessive_'
'essentially_'
'erstellt_'
'erklärte_'
'erfolg'
'enti'
'ending_'
'end'
'em'
'elt_'
'electronic_'
'electricity_'
'eit_'
'educational_'
'east_'
'dy_'
'driver_'
'drawn_'
'diversity_'
'disputes_'
'diseases_'
'dis'
'dimension_'
'derart_'
'dep'
'dem'
'dan'
'cri'
'crew_'
'coup_'
'counter'
'corporations_'
'convenient_'
'constantly_'
'considering_'
'conservative_'
'condition_'
'concluded_'
'commodity_'
'cold_'
'church_'
'choices_'
'charming_'
'cal'
'ca'
'burg_'
'browser_'
'blocks_'
'blo'
'blind_'
'bio'
'betroffen_'
'besitzen_'
'besch'
'bequem_'
'bekannten_'
'beginnt_'
'bedeutende_'
'be'
'badly_'
'ausgesetzt_'
'audio_'
'att'
'ationen_'
'arti'
'arbeit_'
'applies_'
'applicable_'
'appeal_'
'ange'
'andererseits_'
'amerikanischer_'
'akzeptiert_'
'aircraft_'
'ain'
'afrikanischen_'
'affect_'
'advertising_'
'ade'
'abkommen_'
'aba'
']]._'
'Zustand_'
'Zusammenbruch_'
'Zug_'
'Yu'
'Yes_'
'Who_'
'Vorschlägen_'
'Vorbereitung_'
'Videos_'
'Venezuela_'
'Var'
'Us'
'Unterschiede_'
'Umfang_'
'USB_'
'Tru'
'Ton'
'Terroristen_'
'Teilnahme_'
'Städten_'
'Stra'
'Stellung_'
'Stability_'
'Spiele_'
'Schwerpunkt_'
'School_'
'Samsung_'
'Saint_'
'SS_'
'SP'
'Road_'
'Regulierungs'
'Regimes_'
'Reform'
'Rechnung_'
'Real'
'Ratsvorsitz_'
'Prinzipien_'
'Plan'
'Pla'
'Perspektive_'
'Partnership_'
'Pacific_'
'PPE_'
'Ost'
'Optionen_'
'ON_'
'Nr_'
'Note_'
'Nos_'
'Nigeria_'
'News_'
'Nein_'
'Neben'
'Nacht'
'Multi'
'Mon'
'Minderheiten_'
'Maßnahme_'
'MEPs_'
'Liefer'
'Leistungs'
'Laufe_'
'Krisen_'
'Konvent_'
'Klima_'
'Kan'
'Je_'
'Jahrzehnten_'
'Jacques_'
'Internationale_'
'IC'
'Hostelsclub_'
'Holz'
'Haushalte_'
'Haus'
'Hamburg_'
'Haft'
'Gipfel_'
'Gegner_'
'Geb'
'Frühstücksbuffet_'
'Fonds_'
'Finanzkrise_'
'Fin'
'Erhöhung_'
'Elemente_'
'EA'
'Due_'
'Doha_'
'Disk'
'Dienstleistungs'
'Dem_'
'Datenbank_'
'DE'
'DC_'
'Cold_'
'Class_'
'Charter_'
'Canada_'
'Burg'
'Bos'
'Blog_'
'Betriebs'
'Berg'
'Bel'
'Beide_'
'Bedarf_'
'Ball'
'Back'
'BI'
'Außenpolitik_'
'Audio_'
'Asyl'
'As'
'Arbeitsplätzen_'
'Arbeitsmarkt_'
'Arbeiter_'
'Anreize_'
'Angelegenheit_'
'Al'
'Aktion_'
'AI'
'AB'
'85_'
'60'
'6'
'49_'
'41_'
'24'
'2030_'
'1967_'
'16'
'08_'
'03'
'/ _'
'/'
') - _'
'() _'
'''
'"'
'!'
' )._'
'”, _'
'к'
'änge_'
'Ü'
'zählen_'
'zunehmenden_'
'zen'
'ye'
'wonderful_'
'wonder_'
'wishes_'
'wisdom_'
'wirtschaftlich_'
'wirken_'
'winter_'
'willkommen_'
'whi'
'welchem_'
'weit'
'vorgeschlagenen_'
'vollen_'
'volle_'
'visitors_'
'visited_'
'visible_'
'verändern_'
'usly_'
'unmittelbar_'
'unlike_'
'unity_'
'uni'
'unc'
'ua'
'twenty_'
'tt'
'trip_'
'trifft_'
'treat_'
'tre'
'tele'
'tag_'
'symbol_'
'supporters_'
'sun'
'submit_'
'store_'
'stic_'
'steigern_'
'speakers_'
'solve_'
'solid_'
'sofern_'
'sion'
'sin'
'serviert_'
'sell_'
'seeks_'
'seat_'
'sea'
'scho'
'sch'
'saved_'
'sauna_'
'satellite_'
'sale_'
'ruling_'
'route_'
'rk'
'ris'
'rin'
'ri'
'restructuring_'
'restore_'
'reporting_'
'remaining_'
'rely_'
'reflected_'
'rece'
'read'
'rb'
'raw_'
'ra'
'push_'
'pri'
'prefer_'
'ports_'
'plays_'
'pie'
'phi'
'persönlich_'
'perform_'
'patent_'
'pack'
'ow'
'our'
'os'
'op_'
'onto_'
'ogen_'
'obtain_'
'ns'
'northern_'
'neu'
'neighbors_'
'necessarily_'
'natürlichen_'
'mä'
'multi'
'mon_'
'mini_'
'meter_'
'mes_'
'meant_'
'meaningfully_'
'meals_'
'markt'
'manchen_'
'macroeconomic_'
'ls'
'loo'
'liked_'
'liberalisation_'
'let'
'lea'
'layer_'
'lautet_'
'kostenlos_'
'konfrontiert_'
'kas'
'jemand_'
'japanische_'
'iten_'
'items_'
'it'
'ists_'
'isi'
'ise'
'ip'
'invest_'
'intention_'
'ino_'
'ini'
'informieren_'
'inform_'
'ina_'
'ie'
'ideological_'
'ics_'
'hängt_'
'hor'
'hinzu'
'hingegen_'
'hab'
'groß_'
'grammatically_'
'gez'
'gesch'
'genutzt_'
'generated_'
'genannte_'
'gel'
'fühlen_'
'fying_'
'fuels_'
'fs_'
'frühen_'
'freundlich_'
'flights_'
'firstly_'
'finanziert_'
'fertig_'
'feeling_'
'feed_'
'farming_'
'facto_'
'explore_'
'eva'
'estimates_'
'erheblich_'
'erfordern_'
'enth'
'eng_'
'enabling_'
'ements_'
'eite_'
'einzigartigen_'
'einst_'
'einfache_'
'egen_'
'eastern_'
'ear'
'durchzuführen_'
'drop_'
'division_'
'discipline_'
'det_'
'deiner_'
'dd'
'dans_'
'crimes_'
'correct_'
'copy_'
'convergence_'
'contextually_'
'conditioning_'
'concrete_'
'conce'
'components_'
'citizen_'
'cies_'
'catch_'
'cable_'
'bur'
'broken_'
'bridge_'
'bond_'
'ble'
'birth_'
'bes_'
'beinhaltet_'
'behaupten_'
'behalten_'
'bau'
'bas'
'baby_'
'aufgezahlt_'
'ator_'
'ath'
'ass'
'asi'
'armen_'
'ama'
'am'
'album_'
'afternoon_'
'afford_'
'ace'
'abgesch'
'\\_'
'Zo'
'Year_'
'Weitere_'
'Wa'
'Vorstellung_'
'Voraussetzung_'
'Volkes_'
'Vice_'
'Verlust_'
'Verbreitung_'
'Though_'
'TI'
'TE'
'Straßen_'
'Sti'
'Stellungnahme_'
'Stattdessen_'
'Star'
'Spa'
'Ski'
'Sim'
'Shanghai_'
'Scheitern_'
'Schau'
'Sam'
'Runde_'
'Ru'
'Roll'
'Ratschlag_'
'Quellen_'
'Prüfung_'
'Programms_'
'Prinzip_'
'Preisen_'
'Pool_'
'Pf'
'Pat'
'Partnerschaft_'
'Os'
'Ol'
'Northern_'
'Nordkorea_'
'National'
'Nation_'
'Nach'
'Moscow_'
'Mor'
'Ministerpräsident_'
'Mikro'
'Menschenrechts'
'Mein_'
'Mc'
'Lord_'
'Like_'
'Law_'
'LL'
'Körper_'
'Krisen'
'Konsens_'
'Komfort_'
'Kla'
'KDE_'
'Justiz_'
'Jedes_'
'Hal'
'HE'
'Großteil_'
'Gew'
'Geschäfte_'
'Ges'
'Gang_'
'Frei'
'Fra'
'Fo'
'Fla'
'Finde_'
'Fest'
'Fernseh'
'FO'
'Exporte_'
'Empire_'
'Eisenbahn'
'Einwohner_'
'Einwanderung_'
'Einstellungen_'
'Einstellung_'
'Einkommens'
'ES'
'Dynamik_'
'Druck'
'Din'
'Details_'
'Datei'
'Consider_'
'Company_'
'Com'
'Clo'
'Charles_'
'Char'
'Chairman_'
'Card'
'Cam'
'CI'
'CF'
'C5_'
'Bro'
'Block'
'Bi'
'Beschluss_'
'Bes'
'Ben'
'Belarus_'
'Beim_'
'Begriff_'
'Bauern_'
'Bal'
'BE'
'Auto_'
'Armen_'
'Apple_'
'Any_'
'Ant'
'Anlage_'
'Amendments_'
'Aktionen_'
'Agrar'
'Adobe_'
'Abst'
'Ab'
'; '
'65_'
'350_'
'250_'
'1990er_'
'193'
'07_'
'02'
' ….. _'
'“'
'ст'
'überprüft_'
'übernommen_'
'ú'
'ès_'
'ätze_'
'ão_'
'Übersetzung_'
'Übergang_'
'´_'
'zuständig_'
'zusammen'
'zt_'
'ziemlich_'
'zieht_'
'zeichen_'
'zar'
'wohnen_'
'wissenschaftlichen_'
'windows_'
'wiederholt_'
'wider'
'whereby_'
'welt_'
'wake_'
'waiting_'
'vis'
'vielmehr_'
'via'
'vi'
'verursacht_'
'verstärken_'
'verehrte_'
'variable_'
'uri'
'urge_'
'unre'
'university_'
'understood_'
'ule'
'uchen_'
'türkischen_'
'tut_'
'ture_'
'tten_'
'tst'
'treiben_'
'tors_'
'tik_'
'tie'
'tau'
'tar_'
'tage_'
'sämtliche_'
'surplus_'
'stu'
'stru'
'strongly_'
'strengthening_'
'strength_'
'streets_'
'storage_'
'sterben_'
'stellte_'
'sst_'
'sso'
'spring_'
'spi'
'spectrum_'
'soweit_'
'son'
'sli'
'sing'
'showing_'
'she'
'shares_'
'sh'
'settlement_'
'seri'
'selten_'
'schr'
'schlägt_'
'schi'
'sches_'
'rü'
'rö'
'ry'
'rou'
'rma'
'rit'
'richtlinie_'
'rfen_'
'responses_'
'replaced_'
'replace_'
'renewable_'
'religiösen_'
'religion_'
'reliable_'
'reich'
'regularly_'
'regeln_'
'regardless_'
'reconstruction_'
'realistic_'
'rbe'
'raten_'
'rat_'
'ras'
'rare_'
'rank'
'ran_'
'quit'
'quer'
'purchases_'
'pur'
'prove_'
'proposing_'
'promised_'
'previously_'
'preparation_'
'premi'
'ppi'
'posed_'
'pleasant_'
'pit'
'pha'
'personnel_'
'periods_'
'percentage_'
'perceived_'
'passiert_'
'participants_'
'parks_'
'overcome_'
'ov'
'ously_'
'ought_'
'organised_'
'ore'
'opt_'
'operational_'
'olin'
'ok'
'oh'
'offices_'
'offen'
'obligation_'
'ny_'
'normalen_'
'nochmals_'
'nk_'
'nine_'
'nicht'
'ngs'
'nge'
'namen_'
'nal_'
'mont'
'mobility_'
'ml'
'mittels_'
'mittel'
'mea'
'manufacturers_'
'managing_'
'maintenance_'
'locations_'
'lla'
'lists_'
'ließen_'
'lie'
'legacy_'
'leaves_'
'lb'
'lay_'
'ku'
'ks'
'kraft_'
'kontrollieren_'
'komp'
'knows_'
'ki_'
'kel'
'jährigen_'
'judicial_'
'jpg_'
'joining_'
'iv_'
'isten_'
'issued_'
'israelische_'
'iranischen_'
'involve_'
'intelligence_'
'integriert_'
'installed_'
'ines_'
'indicated_'
'inden_'
'iel'
'identify_'
'ible_'
'hof_'
'hit'
'hilfreich_'
'highlight_'
'hel'
'heißen_'
'hall_'
'greifen_'
'grateful_'
'gra'
'governing_'
'ght_'
'gh_'
'gge'
'ges'
'geringe_'
'geraten_'
'gek'
'gardens_'
'frequently_'
'free'
'foundation_'
'for'
'flo'
'female_'
'fell_'
'fears_'
'fate_'
'failures_'
'failing_'
'exciting_'
'ever'
'etzt_'
'esta'
'esi'
'escape_'
'erst'
'ers'
'ero'
'erlauben_'
'ering_'
'ered_'
'entscheidender_'
'entscheidende_'
'engagement_'
'ela'
'eiten_'
'einzelne_'
'eck'
'echten_'
'echn'
'durch'
'dro'
'dit'
'discussing_'
'disaster_'
'direkten_'
'ding'
'destination_'
'derartigen_'
'depending_'
'dependent_'
'definiert_'
'decisive_'
'ct_'
'credible_'
'creative_'
'constitute_'
'cons'
'concentrate_'
'computers_'
'collection_'
'collaboration_'
'coast_'
'claimed_'
'chw'
'cer'
'cc'
'causing_'
'budgets_'
'bro'
'brand_'
'bi_'
'bezeichnet_'
'beste'
'beschränkt_'
'beige'
'beg'
'beenden_'
'bathrooms_'
'basiert_'
'author_'
'austerity_'
'ausländischen_'
'ausgesprochen_'
'ausgehen_'
'atz_'
'arise_'
'ari_'
'argument_'
'approximately_'
'appe'
'anywhere_'
'ant'
'annehmen_'
'angel'
'angegebenen_'
'anf'
'anderswo_'
'ambitious_'
'alternatives_'
'aggressive_'
'adequate_'
'Zimmern_'
'Zahlen_'
'Will_'
'Wien_'
'Where_'
'Welche_'
'Webseite_'
'Wald'
'Wachstums'
'WE'
'Vi'
'Veränderung_'
'Verteidigungs'
'Verst'
'Verringerung_'
'Verkehr_'
'Verbot_'
'Valencia_'
'Uni'
'UR'
'Titel_'
'Thailand_'
'Syrian_'
'Switzerland_'
'Super'
'Such'
'Stärke_'
'Straf'
'Steuerzahler_'
'Soldaten_'
'Similarly_'
'Sierra_'
'Sep'
'Schutz'
'Sc'
'Russlands_'
'Rumänien_'
'Rechten_'
'Ratspräsidentschaft_'
'Rahmen'
'Premier_'
'Poker_'
'Plat'
'Planeten_'
'Place_'
'Para'
'Palästina_'
'Orten_'
'Organe_'
'Once_'
'OK_'
'Ne'
'Natur'
'Nacht_'
'Märkten_'
'Mus'
'Morgen_'
'Menschen'
'Medi'
'Martin_'
'MS_'
'ME'
'Luc'
'Loc'
'Licht_'
'Lebens_'
'Laut_'
'LONDON_'
'Kulturen_'
'Kritiker_'
'Kre'
'Konvention_'
'Konsequenzen_'
'Kir'
'Kim_'
'Karten_'
'Jordan_'
'Jede_'
'Jean_'
'Jahrzehnt_'
'Inn_'
'Immobilien'
'Ihres_'
'IP'
'Hi'
'Herstellung_'
'Herrschaft_'
'Having_'
'Hauptbahnhof_'
'Großen_'
'Gerichte_'
'Georgia_'
'General'
'Gelder_'
'Gegenstand_'
'Ge'
'Gas_'
'GNU_'
'GA'
'Fuß_'
'Freuen_'
'Foto'
'Finanzierungs'
'Fer'
'Fenster_'
'Fas'
'Experten_'
'Energy_'
'ET'
'ES_'
'Durch'
'Does_'
'Dis'
'Design'
'Democratic_'
'Dass_'
'DO'
'Cyprus_'
'Common_'
'College_'
'Chris_'
'Card_'
'Burma_'
'Bur'
'Bulgarien_'
'Buch'
'Blo'
'Bewältigung_'
'Bevölkerungs'
'Bereitschaft_'
'Beiträge_'
'Be'
'Bars_'
'At'
'Ap'
'Anti_'
'Anschluss_'
'Anpassung_'
'And'
'Ambiente_'
'Alles_'
'All'
'Air'
'Action_'
'Abe_'
'AN'
'A3'
'?'
'97_'
'700_'
'50'
'47_'
'34_'
'26'
'1993_'
'187'
'09_'
'00'
'); _'
'): _'
') (_'
'({{_'
'('
'''_'
'$_'
'  _'
' $ _'
'”'
'’, _'
'‘_'
'р'
'š'
'üsse_'
' – _'
'zählt_'
'zweifellos_'
'zulassen_'
'zer_'
'zer'
'zeiten_'
'yp'
'ye_'
'wächst_'
'wood_'
'wn_'
'wirkliche_'
'win'
'wiederholen_'
'werte_'
'waters_'
'wa_'
'vorher_'
'vorbei_'
'volume_'
'vit'
'virtually_'
'vin'
'verwe'
'verteilt_'
'verteidigen_'
'verstanden_'
'versions_'
'vern'
'valid_'
'unterzeichnet_'
'unterge'
'ungsp'
'unf'
'uncertainty_'
'uli'
'uk'
'ug_'
'uel'
'tö'
'tun'
'tum_'
'transportation_'
'tons_'
'time'
'tier'
'tic'
'terrible_'
'tern'
'tens_'
'temporary_'
'tea_'
'tan_'
'tackle_'
'systemen_'
'surf'
'sum_'
'suitable_'
'successfully_'
'succeeded_'
'stärkere_'
'strike_'
'steigende_'
'sse'
'spect'
'specified_'
'soil_'
'sit_'
'siert_'
'sharply_'
'sexual_'
'selbst'
'seite_'
'seeing_'
'secret_'
'scientists_'
'sauber_'
'ruhig_'
'rkt_'
'ride_'
'ria'
'returns_'
'respected_'
'reserve_'
'res'
'requirement_'
'represented_'
'repa'
'rent'
'remarkable_'
'rel'
'rein'
'reich_'
'rei'
'regionaler_'
'reflection_'
'recognized_'
'reagiert_'
'reaction_'
'rag'
'qui'
'quantitative_'
'providers_'
'prospect_'
'proposes_'
'proceedings_'
'pres'
'prec'
'pose_'
'populations_'
'plenary_'
'photograph'
'phones_'
'passieren_'
'passengers_'
'passenger_'
'outstanding_'
'ote'
'orders_'
'ong_'
'og_'
'offiziell_'
'offene_'
'occurred_'
'nz_'
'nti'
'notice_'
'not'
'nord'
'noise_'
'nken_'
'nk'
'niedrigen_'
'ngs_'
'net'
'neighbouring_'
'natur'
'mut'
'mountains_'
'mmel'
'mer'
'medicines_'
'mb'
'marquis_'
'mann_'
'manager_'
'magnificent_'
'ländlichen_'
'ländern_'
'like'
'length_'
'lad'
'kur'
'kt_'
'klein_'
'klaren_'
'kes_'
'kernel_'
'karte_'
'jüngste_'
'jemals_'
'iz'
'iron_'
'involves_'
'insufficient_'
'insist_'
'input_'
'implies_'
'illi'
'igt_'
'icht'
'hör'
'hä'
'holds_'
'hle'
'hierbei_'
'heraus'
'heim'
'hed_'
'hearing_'
'has'
'harmful_'
'ham_'
'griechische_'
'gewähren_'
'gewa'
'gespielt_'
'gese'
'geschieht_'
'gerät_'
'gerichtet_'
'geplant_'
'gemein'
'gelöst_'
'gelungen_'
'fördert_'
'fä'
'fun'
'freuen_'
'fossil_'
'formen_'
'fonds_'
'finde_'
'films_'
'filled_'
'festgelegt_'
'fen'
'fare_'
'familiar_'
'facilitate_'
'excess_'
'exceptional_'
'ewi'
'ess'
'eröffnet_'
'erstmals_'
'erreichbar_'
'erli'
'erfüllt_'
'ere'
'ents_'
'enjoyed_'
'enhanced_'
'engine_'
'enabled_'
'emotional_'
'elite_'
'ektor_'
'einzuführen_'
'einheitlichen_'
'einerseits_'
'eigener_'
'eht_'
'ehr'
'eco'
'earth_'
'dritte_'
'dispute_'
'diskutieren_'
'disco'
'direkte_'
'dic'
'demonstrate_'
'del'
'def'
'critics_'
'copyright_'
'cope_'
'convert_'
'containing_'
'contained_'
'constant_'
'con'
'clubs_'
'cks_'
'ción_'
'chen'
'chain_'
'centres_'
'cells_'
'castle_'
'capita_'
'buying_'
'bul'
'bre'
'brachte_'
'blue_'
'blieb_'
'beträgt_'
'betroffenen_'
'beteiligt_'
'besitzt_'
'beschäftigt_'
'beschränken_'
'beschleunigen_'
'bemühen_'
'bekommt_'
'behoben_'
'behauptet_'
'bedeutenden_'
'ban'
'ball_'
'backed_'
'ba_'
'ausl'
'aufmerksam_'
'attractions_'
'attitude_'
'ata'
'assure_'
'aspect_'
'asiatischen_'
'app'
'anschließend_'
'angesprochen_'
'amp'
'amm'
'amenities_'
'alo'
'adults_'
'adapt_'
'acts_'
'actors_'
'aci'
']]'
'Zugleich_'
'Zug'
'Zahlungs'
'Würde_'
'Währungen_'
'Wirtschafts_'
'Widerstand_'
'Wesentlichen_'
'Wei'
'Vorsitzenden_'
'Vorbe'
'Verz'
'Versorgung_'
'Vermögens'
'Verhandlungs'
'Verfolgung_'
'Verbündeten_'
'Vel'
'Valley_'
'Ums'
'Umgang_'
'USD_'
'Trotzdem_'
'Tiere_'
'Three_'
'Third_'
'Thanks_'
'Test'
'Terrasse_'
'Termin'
'Telefon'
'Tar'
'Tages_'
'TO'
'TH'
'Support_'
'Suite_'
'Sub'
'Stunde_'
'Statt_'
'Spannungen_'
'Sony_'
'Sind_'
'Sin'
'Set_'
'Sektoren_'
'Science_'
'Schule_'
'Schiff_'
'SM'
'SA_'
'Ruf_'
'River_'
'Rhetorik_'
'Regional_'
'Ram'
'RT'
'Projekt'
'Produkten_'
'Potenzial_'
'Pol'
'Pas'
'Pala'
'PRO'
'PD'
'Off'
'Ob_'
'Nu'
'Nonetheless_'
'NGOs_'
'Mädchen_'
'Mos'
'Morocco_'
'Module_'
'Mitgliedstaat_'
'Met'
'Menü_'
'Menschheit_'
'Mehr'
'Meanwhile_'
'Mark_'
'Mangel_'
'Mac_'
'Luft_'
'Len'
'Leitung_'
'Lebensmittel'
'Lang'
'Küste_'
'Kä'
'Kohle'
'Koalition_'
'Kluft_'
'Klasse_'
'Kilometer_'
'Kern'
'Ken'
'Keine_'
'Jerusalem_'
'Japans_'
'Iraqi_'
'Intervention_'
'Index_'
'IS_'
'IL'
'IG'
'Hindernisse_'
'Hersteller_'
'Henry_'
'Hea'
'Grundsatz_'
'Glauben_'
'Geld'
'Gegen'
'Gedanken_'
'Gebiete_'
'GE'
'Führer_'
'Funds_'
'Fun'
'Fu'
'Freunde_'
'Fotos_'
'Fischerei_'
'Ferner_'
'Federation_'
'Eltern_'
'Ele'
'Effizienz_'
'Education_'
'Ed'
'Distribution_'
'Digital_'
'Deutschen_'
'Desk_'
'Des'
'Den'
'Declaration_'
'DER_'
'Constitutional_'
'Climate_'
'Cha'
'Captain_'
'Call'
'Box_'
'Blue_'
'Black_'
'Bla'
'Big_'
'Beteiligung_'
'Besucher_'
'Bestandteil_'
'Berücksichtigung_'
'Bemerkung_'
'Beijing_'
'Automobil'
'Auftrag_'
'Aufnahme_'
'Atomwaffen_'
'Anst'
'Anliegen_'
'Anleihen_'
'Anlass_'
'Anhänger_'
'Angebote_'
'Anders_'
'Anbetracht_'
'Ai'
'Agentur_'
'Acc'
'Ablehnung_'
'AS'
'AP'
':'
'79'
'31'
'237'
'23'
'1986_'
'1945_'
'17'
'.“ _'
'...._'
') – _'
''''
' !_'
'• _'
'“ (_'
'’._'
'у'
'üh'
'überaus_'
'ét'
'äten_'
'ät'
'älteren_'
'Überprüfung_'
'Übereinkommen_'
'zus'
'zugänglich_'
'zes_'
'zentren_'
'zahl'
'youth_'
'yo'
'y'
'work'
'wirkt_'
'wie'
'whereas_'
'western_'
'wesen_'
'weitgehend_'
'warning_'
'vorlegen_'
'voraus_'
'voluntary_'
'voller_'
'vis_'
'violent_'
'verw'
'verleihen_'
'verh'
'ven'
'vel'
'valuable_'
'ust_'
'ursprünglichen_'
'ursprünglich_'
'unwi'
'unterschiedliche_'
'untern'
'unions_'
'undoubtedly_'
'umwelt'
'ult'
'uer_'
'tü'
'tätig_'
'tungen_'
'tti'
'tte'
'troops_'
'tours_'
'tom'
'tobacco_'
'tle'
'threatening_'
'tennis_'
'tei'
'taten_'
'tat'
'taste_'
'tas'
'tari'
'tar'
'tables_'
'surprise_'
'surface_'
'suggested_'
'subsequent_'
'stylish_'
'stelle_'
'stein_'
'spo'
'spezielle_'
'speichern_'
'soldiers_'
'sodass_'
'sma'
'ska'
'sieren_'
'shadow_'
'sf'
'sens'
'senken_'
'sending_'
'sd'
'schöne_'
'schl'
'schie'
'scenario_'
'sai'
'ruled_'
'rte_'
'rightly_'
'rge'
'rg'
'rf'
'revolutionary_'
'rer'
'reputation_'
'repeated_'
'renowned_'
'relief_'
'regret_'
'registration_'
'reg'
'rede'
'recommended_'
'recommendations_'
'rechtzeitig_'
'rechtlichen_'
'reb'
'react_'
'rating_'
'ranging_'
'punkte_'
'pt'
'ps'
'präsentiert_'
'prozess_'
'profile_'
'produziert_'
'produktion_'
'pressures_'
'prepare_'
'possibly_'
'possibilities_'
'planung_'
'ph'
'pen'
'pays_'
'password_'
'pass'
'pal'
'pace_'
'owners_'
'overlooking_'
'ost'
'ose_'
'ordered_'
'oppose_'
'opi'
'ology_'
'offizielle_'
'obtained_'
'nunmehr_'
'nto'
'nsch'
'non'
'ndo_'
'nachge'
'na'
'motor_'
'mother_'
'minor_'
'minimal_'
'mid'
'mba'
'mas'
'marks_'
'machines_'
'lug'
'loved_'
'lounge_'
'log'
'lobby_'
'load_'
'ln'
'lieber_'
'lieb'
'lf'
'letzter_'
'ler'
'lat'
'langfristigen_'
'lag'
'könne_'
'kurz'
'kri'
'knew_'
'jegliche_'
'izi'
'ita'
'istischen_'
'ions'
'involvement_'
'invested_'
'introducing_'
'int'
'installiert_'
'inl'
'inde'
'incentive_'
'impe'
'immt_'
'immense_'
'ij'
'igu'
'ified_'
'iet'
'iel_'
'ida'
'ich'
'ib'
'households_'
'hielt_'
'heutige_'
'heritage_'
'hergestellt_'
'hei'
'hardware_'
'größerer_'
'graphics_'
'granting_'
'gne_'
'gn'
'gle'
'gewonnen_'
'gesellschaft_'
'gent'
'generations_'
'gel_'
'gefördert_'
'gefährden_'
'geeignet_'
'gebiet_'
'furnished_'
'fri'
'fre'
'financed_'
'ferner_'
'fails_'
'factor_'
'exposed_'
'exploitation_'
'exclusion_'
'evaluation_'
'eur_'
'erstellen_'
'erleichtern_'
'erf'
'erbe'
'erb'
'enz'
'entsteht_'
'entscheidenden_'
'enten_'
'ente_'
'enta'
'ensi'
'ens'
'encouraging_'
'emp'
'emerged_'
'emerge_'
'egung_'
'effektive_'
'edited_'
'edi'
'edge_'
'ec'
'eau_'
'dream_'
'dre'
'div'
'distinguish_'
'determination_'
'designs_'
'demokratischer_'
'dead_'
'dates_'
'cu'
'cru'
'creates_'
'cosy_'
'corner_'
'consistent_'
'conse'
'composed_'
'compliance_'
'communist_'
'colours_'
'col'
'cen'
'cameras_'
'bri'
'boot_'
'boom_'
'bewa'
'betreffenden_'
'betonen_'
'besorgt_'
'beobachten_'
'bela'
'beigetragen_'
'behörde_'
'behaviour_'
'begins_'
'bee'
'bedrooms_'
'beauty_'
'beantworten_'
'bauen_'
'az'
'ausländische_'
'ausgezeichnete_'
'ausgaben_'
'attempted_'
'ati'
'ates_'
'articles_'
'arten_'
'arian_'
'ards_'
'applying_'
'anzuzeigen_'
'ante_'
'ante'
'anhand_'
'angesehen_'
'anerkannt_'
'amongst_'
'alcohol_'
'ak'
'ah_'
'aging_'
'ag_'
'affairs_'
'adjustments_'
'acy_'
'acting_'
'acknowledge_'
'ack'
'abzu'
'absch'
'Zwei'
'Zusammenhalt_'
'Zusammen'
'Zugriff_'
'Zuge_'
'Zivilgesellschaft_'
'Zeitung_'
'Xi_'
'Währungsunion_'
'Winter_'
'Wikitravel_'
'Wiki'
'Weltkrieg_'
'Weiß'
'Wal'
'Wahrnehmung_'
'Voll'
'View_'
'Vielen_'
'Viel'
'Verf'
'Verd'
'Van_'
'Update_'
'Truppen_'
'Traditionen_'
'Tonnen_'
'Ticket_'
'Tibet_'
'Ti'
'Tests_'
'Ter'
'Tee'
'Tau'
'Südkorea_'
'Sus'
'Sudan_'
'Studio_'
'Strasbourg_'
'Steigerung_'
'Standort_'
'Staff_'
'Staatsanleihen_'
'Spezialitäten_'
'Special_'
'Sou'
'Sitz_'
'Situationen_'
'Sho'
'Serie_'
'Sen'
'Selbstverständlich_'
'Sel'
'Sektors_'
'Schätzungen_'
'Schlussfolgerungen_'
'Sche'
'Sach'
'Saa'
'SU'
'SO'
'Rou'
'Rock_'
'Regulierung_'
'Regierungskonferenz_'
'Rea'
'Rather_'
'Rand_'
'RD'
'Que'
'Project_'
'Presse'
'Power_'
'Positionen_'
'Politik'
'Pläne_'
'Pay'
'Pakete_'
'PSE_'
'PL_'
'Ober'
'OECD_'
'Nobel_'
'Niederlage_'
'Nie'
'Netzwerk_'
'Nero_'
'NI'
'Mur'
'Moo'
'Mobile_'
'Mittelpunkt_'
'Mitgliedsstaaten_'
'Min'
'Millennium_'
'Methoden_'
'Mensch_'
'Mehr_'
'Maria_'
'Malaria_'
'Mah'
'Maastricht_'
'Lie'
'Lei'
'LabVIEW_'
'Küsten'
'Korean_'
'Koordinierung_'
'Kooperation_'
'Kongress_'
'Kauf'
'KE'
'Jones_'
'Jahrzehnte_'
'Iranian_'
'Internet'
'Institution_'
'Innenstadt_'
'Indonesia_'
'IM'
'IF'
'IA'
'Hungary_'
'Hol'
'Hei'
'Has'
'Haftung_'
'HTML_'
'Gründung_'
'Growth_'
'Griechenlands_'
'Governments_'
'Golden_'
'Glas'
'Gesetzgebung_'
'Gerechtigkeit_'
'Gef'
'Garden_'
'Gara'
'Gar'
'Ga'
'GS'
'Fälle_'
'Fur'
'Freude_'
'Fort'
'Format_'
'Force_'
'Fle'
'Finnish_'
'Fil'
'Fernsehen_'
'Fat'
'Fal'
'Existenz_'
'Est'
'Empfehlungen_'
'Emp'
'Einzel'
'Eg'
'EM'
'EF'
'Direkt'
'Des_'
'Department_'
'Denmark_'
'Delegation_'
'Dec'
'Davos_'
'Darfur_'
'Cy'
'Cro'
'Cra'
'Civil_'
'Chinesen_'
'Cat'
'Camp'
'Cab'
'CC'
'Börse_'
'Budgets_'
'Bru'
'Boot_'
'Bol'
'Bildungs'
'Besorgnis_'
'Besitz'
'Beschlüsse_'
'Belgium_'
'Beitritts'
'Band'
'Balkans_'
'Bahnhof_'
'Bag'
'B5_'
'Aussch'
'Are_'
'Arbeiten_'
'Anzeichen_'
'Ansichten_'
'Anlagen_'
'Alter_'
'Abhängigkeit_'
'90'
'78_'
'72_'
'55_'
'43_'
'27'
'180_'
'04_'
'" '
' ,,_'
' ), _'
'” – _'
'” (_'
'л'
'е_'
'ž'
'überzeugen_'
'überrascht_'
'ü'
'ó_'
'ña_'
'är_'
'änder_'
'ßt_'
'ßer'
'Österreich_'
'Öffnung_'
'{{_'
'zwei'
'zin'
'zie'
'yr'
'yi'
'yg'
'yer_'
'woman_'
'wirk'
'willingness_'
'wife_'
'welchen_'
'watch_'
'ware_'
'wahr'
'vorliegenden_'
'vollständige_'
'vert'
'versorgung_'
'verschärft_'
'verschiedener_'
'verringert_'
'verhindert_'
'venture_'
'ut'
'usi'
'urs'
'urgently_'
'upgrade_'
'unterstützte_'
'unterliegen_'
'unstable_'
'unpa'
'universities_'
'undi'
'ump'
'uld'
'ular_'
'ufen_'
'tru'
'trip'
'trial_'
'towns_'
'top'
'tm'
'tig'
'threshold_'
'tested_'
'terrorists_'
'territories_'
'teri'
'teile_'
'teams_'
'teachers_'
'taxpayers_'
'targeted_'
'sustainability_'
'summe'
'suites_'
'sucht_'
'ständigen_'
'stä'
'studio_'
'stocks_'
'stl'
'steel_'
'statistics_'
'stadt_'
'stabile_'
'staaten_'
'spezifischen_'
'spezifische_'
'spar'
'spaces_'
'sounds_'
'sor'
'some'
'sna'
'smooth_'
'sleep_'
'simultaneously_'
'sim'
'sie'
'side'
'selben_'
'sec'
'schlechte_'
'schau'
'sand'
'san'
'sam_'
'run'
'ruhigen_'
'rts_'
'rre'
'rom'
'roll_'
'rly_'
'rken_'
'rk_'
'ress_'
'respective_'
'reso'
'requiring_'
'requested_'
'representing_'
'repeatedly_'
'rent_'
'render'
'rend'
'remarks_'
'religiöse_'
'regarded_'
'refusal_'
'recall_'
'realen_'
'reale_'
'rau'
'rated_'
'rapporteurs_'
'ragen_'
'pu'
'prominent_'
'progressive_'
'programm'
'professionals_'
'prim'
'prevented_'
'predict_'
'praktische_'
'politically_'
'ple'
'pic'
'phon'
'persönliche_'
'performed_'
'par_'
'ossen_'
'organization_'
'ora_'
'ological_'
'oll'
'ole'
'og'
'od_'
'näher_'
'nst'
'nin'
'niedrig_'
'neun_'
'nei'
'nationalist_'
'narrow_'
'mächtig'
'moralische_'
'mod'
'mix_'
'mistake_'
'ministeri'
'mess'
'menschlichen_'
'meal_'
'mali'
'mainstream_'
'lter_'
'losen_'
'lor'
'llen'
'lichkeiten_'
'leu'
'lem'
'leistungen_'
'legally_'
'lau'
'lasting_'
'langsam_'
'landscape_'
'lake_'
'lac'
'la'
'ky_'
'ktor'
'kosten'
'kin'
'killing_'
'jährlichen_'
'justified_'
'japanischen_'
'jahr_'
'ively_'
'iva'
'itz'
'itt_'
'internen_'
'intentions_'
'inst'
'inge'
'indi'
'incomes_'
'inci'
'impression_'
'imp'
'ignored_'
'ignore_'
'iger'
'idi'
'id'
'ica'
'hydro'
'humans_'
'hre'
'holen_'
'hilfe_'
'hi_'
'herzlich_'
'herrscht_'
'hen'
'heavily_'
'handel_'
'großem_'
'grant_'
'gos'
'golden_'
'gewo'
'gestern_'
'gesellschaften_'
'geschrieben_'
'genetic_'
'gehalten_'
'functioning_'
'frische'
'fourth_'
'foundations_'
'fort_'
'forest_'
'focusing_'
'flying_'
'flu'
'floors_'
'fitness_'
'fis'
'finish_'
'fat'
'fach'
'extrem_'
'expanded_'
'evi'
'esti'
'esch'
'erzeugt_'
'error_'
'erlebt_'
'erlangen_'
'eo_'
'entschlossen_'
'enterprise_'
'entering_'
'ening_'
'enhance_'
'enge_'
'enemies_'
'ene'
'endo'
'enco'
'emb'
'ell'
'electric_'
'ekt'
'eit'
'einzig_'
'einverstanden_'
'eingegangen_'
'eigenes_'
'ehemalige_'
'eat_'
'dt_'
'drei'
'dominated_'
'doctrine_'
'doctors_'
'doctor_'
'disk_'
'disasters_'
'dig'
'difficulty_'
'dictatorship_'
'design'
'departure_'
'demonstrated_'
'demo'
'defizit_'
'definitely_'
'dee'
'dea'
'de'
'dat'
'ct'
'cop'
'contents_'
'conta'
'constructive_'
'conduct_'
'comply_'
'com'
'colour'
'cleaning_'
'checking_'
'channel_'
'cell_'
'cart'
'carrying_'
'bä'
'bs'
'bru'
'broader_'
'bot_'
'black'
'bla'
'betreiben_'
'beseitigen_'
'beschließen_'
'berühmten_'
'bere'
'beraten_'
'bekam_'
'beeinflusst_'
'basieren_'
'barriers_'
'bahn_'
'backing_'
'aw'
'autumn_'
'auto'
'auswählen_'
'ausger'
'auftreten_'
'aufgegeben_'
'assumed_'
'arrived_'
'arrested_'
'array_'
'architecture_'
'ara_'
'anten_'
'anda'
'alter_'
'alter'
'alongside_'
'allo'
'alis'
'agr'
'ag'
'adopting_'
'adi'
'adaptation_'
'ada'
'accused_'
'accepting_'
'abuse_'
']'
'Zuständigkeit_'
'Zusatz'
'Zeitalter_'
'Ze'
'Währungsfonds_'
'Wä'
'Wolf'
'Wirtschaftss'
'Winter'
'William_'
'Wild'
'Wikicars_'
'Wie'
'Wi_'
'Wi'
'White_'
'Werten_'
'Weit'
'Webseiten_'
'Ware_'
'Vorsch'
'Vorausschau_'
'Volkswirtschaft_'
'Viertel_'
'Versuche_'
'Versch'
'Verfügbarkeit_'
'Vereinigte_'
'Verbrechen_'
'Ve'
'Use_'
'Unterkunft_'
'Une'
'Treaties_'
'Todesstrafe_'
'Tip_'
'Terror_'
'Technology_'
'Tat'
'Tages'
'TER'
'System'
'Swiss_'
'Sun'
'Studenten_'
'Strukturfonds_'
'Struktur_'
'Structural_'
'Straßen'
'Str'
'Start'
'Sommer'
'Sid'
'Sicherheitsrat_'
'Show_'
'Sein_'
'Sea'
'Schweden_'
'Schuld'
'Schnell'
'Schlüssel_'
'Schlag'
'Schei'
'Schaden_'
'Sauna_'
'Sau'
'STA'
'SD'
'Ruhe_'
'Roman'
'Risiko'
'Richard_'
'Rettungs'
'Ret'
'Ree'
'Reagan_'
'RM'
'Qui'
'Qualitäts'
'Präsenz_'
'Produktivität_'
'Praxis_'
'Portuguese_'
'Politikern_'
'Politiken_'
'Polish_'
'Point_'
'Pes'
'Otherwise_'
'Opera_'
'Nord_'
'Net'
'NT'
'NO'
'Muster_'
'Monopol'
'Mol'
'Modern_'
'Mittelmeer'
'Minute_'
'Mini'
'Micro'
'Mei'
'May'
'Market_'
'Mark'
'Mani'
'MB_'
'Logik_'
'Likewise_'
'Libanon_'
'Lib'
'Lernen_'
'Lauf'
'LateRooms_'
'Landwirte_'
'Lake_'
'Künstler_'
'König_'
'Kunden'
'Konvents_'
'Konto_'
'Konsum_'
'Konsum'
'Konflikten_'
'Kon'
'Kompromiss'
'Kampf'
'KO'
'Joseph_'
'Islands_'
'Ironi'
'Indonesien_'
'Import'
'ISO_'
'ISIS_'
'Hum'
'Hollande_'
'Hir'
'Helsinki_'
'Hauses_'
'HI'
'Guests_'
'Gr'
'Gir'
'Gesicht_'
'Geschwindigkeit_'
'Gesch'
'Georg'
'Gentoo_'
'GI'
'Freizeit'
'Frank_'
'Framework_'
'Ford_'
'For'
'Finanzsystem_'
'Fi_'
'Festlegung_'
'Fehl'
'Faktor_'
'FT'
'Eu'
'Ess'
'Erwachsene_'
'Errichtung_'
'Erk'
'Entschließungsantrag_'
'Energies'
'Emissions'
'Einer_'
'Dubai_'
'Drei_'
'Darin_'
'Country_'
'Communist_'
'Colo'
'Chávez_'
'Chirac_'
'Cher'
'Cas'
'Cambridge_'
'California_'
'Cal'
'CS'
'CON'
'CH'
'CE_'
'CE'
'CA_'
'Bulgaria_'
'Bri'
'Blut'
'Bern'
'Bemerkungen_'
'Bedrohungen_'
'Bea'
'BR'
'Ave'
'Authority_'
'Australia_'
'Ausnahme'
'Ausführungen_'
'Aufstieg_'
'Assembly_'
'Ari'
'Argumente_'
'Arch'
'Antworten_'
'Annehmlichkeiten_'
'Angriffe_'
'Ala'
'Airlines_'
'AU'
'AL'
'56_'
'38_'
'2020_'
'189'
'182'
'01'
'. „_'
'.  _'
''' (_'
'&#_'
'… _'
'–_'
'м'
'з'
'übernimmt_'
'überh'
'öt'
'éa'
'äts'
'ähr'
'ähnlich_'
'äge_'
'Übrigen_'
'Überg'
'Ökonomie_'
'}} **{{_'
'zugrunde_'
'zug'
'zerstört_'
'zahlt_'
'zahl_'
'xa'
'wä'
'wunder'
'wohl'
'whilst_'
'wenden_'
'well'
'welcoming_'
'web'
'walls_'
'wal'
'vorgenommen_'
'vollkommen_'
'victim_'
'versichern_'
'versi'
'versetzt_'
'versch'
'verhalten_'
'verdienen_'
'ver'
'vent'
'vely_'
'untersucht_'
'unterstütze_'
'unter'
'unt'
'ungsbe'
'ungs_'
'unden_'
'uncertain_'
'unabhängigen_'
'un'
'umgeben_'
'uit'
'ug'
'ue'
'ually_'
'täts'
'täglichen_'
'tze'
'träger_'
'tour_'
'tour'
'ton'
'tisch_'
'til'
'ticket_'
'threatened_'
'tha'
'texts_'
'tes'
'tera'
'teilnehmen_'
'tbar'
'taxi_'
'tag'
'ta'
'sä'
'switch_'
'swa'
'surely_'
'superior_'
'subs'
'stunning_'
'struktur_'
'string_'
'sten'
'ssu'
'sre'
'spoken_'
'spiegelt_'
'sozial'
'sorgt_'
'sole_'
'sobald_'
'smo'
'slo'
'sive_'
'sil'
'sicherheit_'
'shortage_'
'shop_'
'sheet_'
'serving_'
'sensible_'
'sehe_'
'see'
'schön_'
'schätzen_'
'schweren_'
'schutz_'
'schlimmsten_'
'schein'
'sau'
'row_'
'ria_'
'rhetoric_'
'revers'
'respects_'
'resource_'
'residence_'
'reserved_'
'rescue_'
'repeat_'
'renoviert_'
'remo'
'rein_'
'reduzieren_'
'red'
'recover_'
'recommendation_'
'rechten_'
'rder'
'rch'
'rational_'
'ratifiziert_'
'rati'
'radi'
'qui_'
'qualified_'
'q_'
'pursuit_'
'pti'
'presents_'
'preise_'
'pr'
'power'
'potenziellen_'
'por'
'polls_'
'plötzlich_'
'pli'
'platz'
'pec'
'partnerships_'
'ost_'
'ort'
'orit'
'oriented_'
'organized_'
'organisationen_'
'ore_'
'optimal_'
'opti'
'opp'
'oo'
'ont_'
'ont'
'omm'
'ome_'
'ome'
'om_'
'om'
'occupation_'
'obstacles_'
'observers_'
'nz'
'nung_'
'nten_'
'nted_'
'notably_'
'nom'
'nm'
'nke'
'nist'
'nish'
'netz_'
'neo'
'ndern_'
'nci'
'mor'
'mono'
'moni'
'moments_'
'modify_'
'mode'
'mixed_'
'mitten_'
'miss'
'milk_'
'meters_'
'messen_'
'messages_'
'mere_'
'mein'
'medicine_'
'med_'
'mat'
'male_'
'lä'
'lv'
'lunch_'
'lter'
'lots_'
'lity_'
'liches_'
'lic'
'library_'
'lev'
'lets_'
'lenken_'
'last'
'lam'
'lager_'
'ktions'
'kov'
'korrekt_'
'konkreten_'
'kne'
'knapp_'
'klicken_'
'kleinere_'
'kes'
'kers_'
'kel_'
'judge_'
'journey_'
'ji_'
'jam'
'ize_'
'irtschaft'
'involving_'
'investitionen_'
'investigation_'
'innovations_'
'informal_'
'inflows_'
'individuelle_'
'ime'
'ila'
'ichts'
'hung_'
'hopes_'
'hood_'
'holidays_'
'hof'
'hne'
'historisch_'
'hingewiesen_'
'hill_'
'hes_'
'hervorragende_'
'herauszu'
'heraus_'
'heits'
'hee'
'handling_'
'handle_'
'gäbe_'
'größeres_'
'grundsätzlich_'
'gl'
'girls_'
'gestiegen_'
'gesetz'
'gesellschaftlichen_'
'geringere'
'gera'
'geprüft_'
'gep'
'genügend_'
'generate_'
'gelingen_'
'geld'
'geboten_'
'geboren_'
'gallery_'
'gaben_'
'ften_'
'freundliche_'
'fortsetzen_'
'forthcoming_'
'ford_'
'football_'
'fleet_'
'ffe'
'festzustellen_'
'festen_'
'falsche_'
'fahr'
'facts_'
'ey'
'extremist'
'extra'
'explicitly_'
'expand_'
'existieren_'
'executive_'
'exa'
'eta'
'este'
'erwiesen_'
'ersetzt_'
'erse'
'erreichte_'
'err'
'ernsthaft_'
'erkannt_'
'erhöhte'
'ergriffen_'
'entw'
'enl'
'enha'
'enger_'
'enf'
'ende'
'eld_'
'eintr'
'eins_'
'eingestellt_'
'eingesch'
'ege'
'effektiv_'
'eer'
'een_'
'ebene_'
'easing_'
'earned_'
'durchführen_'
'dung_'
'dropped_'
'drivers_'
'dramatically_'
'dos_'
'disposal_'
'displayed_'
'dialog_'
'deswegen_'
'describes_'
'describe_'
'derzeitige_'
'ders_'
'department_'
'denselben_'
'demonstrations_'
'democracies_'
'delighted_'
'delicious_'
'dedicated_'
'decorated_'
'declare_'
'debian_'
'deadline_'
'davor_'
'dark_'
'dam'
'cut'
'cul'
'ctions_'
'count_'
'cou'
'constraints_'
'considerations_'
'comparison_'
'claiming_'
'ckt_'
'cil'
'chs'
'chlag'
'chief_'
'chel'
'chef_'
'charm'
'careful_'
'camps_'
'calendar_'
'cad'
'busy_'
'buses_'
'bug_'
'buchen_'
'bs_'
'bright_'
'brief_'
'bre_'
'billions_'
'bie'
'bezieht_'
'beweisen_'
'bestätigt_'
'bestehende_'
'bericht_'
'benefited_'
'bene'
'bell'
'believes_'
'bekämpfung_'
'beibehalten_'
'begun_'
'begl'
'bat'
'band_'
'ay_'
'awareness_'
'award_'
'avoided_'
'auszus'
'ausw'
'ausge'
'ausb'
'aufh'
'aufgeführt_'
'aub'
'ast'
'artistic_'
'aro'
'arn'
'arkt'
'ark'
'arbitrary_'
'approval_'
'appropriations_'
'apparent_'
'ape'
'apa'
'ants_'
'anniversary_'
'anl'
'anhaltenden_'
'angemessene_'
'amp_'
'ami'
'ambition_'
'alb'
'aktuell_'
'akt'
'aftermath_'
'adult_'
'admit_'
'adjusted_'
'adds_'
'act'
'acceptance_'
'acc'
'abs'
'aben_'
'Zoll'
'Wit'
'Wissenschaftler_'
'Wirtschaftswachstums_'
'Wird_'
'Weltk'
'Weltb'
'Wellness_'
'Welcome_'
'We'
'Waffen'
'WM'
'Vorsitz_'
'Vorschlags_'
'Vorfeld_'
'Versprechen_'
'Verletzung_'
'Verle'
'Verlauf_'
'Verfassungs'
'Vereinbarungen_'
'Ut'
'Using_'
'Up_'
'Up'
'Tätigkeit_'
'Tur'
'Traum_'
'Trans'
'Town_'
'Ten'
'Technik_'
'Tak'
'Symbol_'
'Sunni_'
'Strukturreformen_'
'Straßburg_'
'Stor'
'Spe'
'Souveränität_'
'Smith_'
'Sky'
'Sir'
'Sil'
'Sicher'
'Should_'
'Serbien_'
'Schwäche_'
'Schon_'
'Schloss_'
'Schle'
'Schie'
'Sar'
'Rose'
'Rob'
'Republicans_'
'Rein'
'Rechnungs'
'Rec'
'Radio_'
'RO'
'Qua'
'Prim'
'Presse_'
'Press_'
'Pole'
'Playa_'
'Peace_'
'Past'
'Pal'
'PP'
'PL'
'PA'
'Osteuropa_'
'Nummer_'
'Notes_'
'Nokia_'
'Niemand_'
'Nicolas_'
'Netzwerk'
'Netz_'
'Nei'
'Nat'
'Nan'
'Nachricht_'
'NG'
'NCC_'
'Mö'
'Mächte_'
'Myanmar_'
'Ministerpräsidenten_'
'Meter_'
'Metall'
'Messe'
'Menschenhandel_'
'Maß_'
'Mass'
'Marketing_'
'Manager_'
'Mallorca_'
'Mad'
'MP'
'Ly'
'Lounge_'
'Liberal'
'Let'
'Lateinamerika_'
'Ladies_'
'Lad'
'Kuba_'
'Krieges_'
'Kr'
'Kopenhagen_'
'Komponenten_'
'Kit'
'Kin'
'Keynes_'
'Kauf_'
'Kara'
'Kandidaten_'
'Kampagne_'
'KA'
'Invest'
'Insgesamt_'
'Inc'
'Image_'
'Hände_'
'Hostels_'
'Hongkong_'
'Herz'
'Have_'
'Haupts'
'Hall_'
'Halb'
'Hafen_'
'Haar'
'HO'
'Gü'
'Gästen_'
'Gri'
'Grab'
'Gott_'
'Glücklicherweise_'
'Generationen_'
'Gegens'
'GB_'
'Friendly_'
'Freiheiten_'
'Formular_'
'Flüchtlings'
'Flash_'
'Fischer_'
'Fisch'
'Finanzp'
'Festival_'
'Farben_'
'FI'
'Exchange_'
'Europa'
'Eta'
'Erwärmung_'
'Erstellung_'
'Erl'
'Emi'
'Element_'
'Einhaltung_'
'Einbeziehung_'
'EP'
'EIB_'
'EC'
'Dreh'
'Doppel'
'Die'
'Dia'
'Deswegen_'
'Description_'
'Demokratien_'
'Demokraten_'
'Dek'
'De'
'DS9_'
'Cu'
'Cruz_'
'Col'
'Cit'
'Christ_'
'Canon_'
'Can'
'Bürgerinnen_'
'Bühne_'
'Börsen'
'Bug'
'Budapest_'
'Br'
'Bewegungen_'
'Betr'
'Benjamin_'
'Banken'
'Avi'
'Ausstattung_'
'Ausmaß_'
'Auslands'
'Ausl'
'Aus'
'Ast'
'Aspekten_'
'Argument_'
'Area_'
'Arabien_'
'Angela_'
'Ana'
'Allianz_'
'Aktien'
'Abh'
'Ab_'
'AV'
'96_'
'63_'
'59_'
'54_'
'40'
'196'
'1000_'
'02_'
'%'
' ?_'
'п'
'г'
'üf'
'üchter'
'überw'
'übertr'
'ég'
'äußern_'
'äs'
'ält_'
'älle_'
'Übergangs'
'Ängste_'
'· _'
'zy'
'zuständigen_'
'zuges'
'zuge'
'yt'
'ysteme_'
'xt'
'wünsche_'
'wort_'
'with'
'wirksame_'
'wing'
'werfen_'
'weist_'
'waves_'
'wasser'
'wahlen_'
'vorzu'
'voneinander_'
'vol'
'virtual_'
'vil'
'viertel_'
'vieles_'
'vessels_'
'verteilung_'
'verschieden'
'versa'
'verr'
'vermutlich_'
'verg'
'varia'
'vari'
'var'
'ux_'
'uth'
'uss'
'unusual_'
'untergraben_'
'unsch'
'united_'
'ung'
'underground_'
'undergo'
'unab'
'umso_'
'ulier'
'uis'
'uen_'
'ude'
'uc'
'tätigkeit_'
'tzung_'
'twin_'
'tur'
'tum'
'tude_'
'tub'
'ttel'
'troll'
'trees_'
'trail'
'tracks_'
'tot'
'tory_'
'topics_'
'tone_'
'tiz'
'tit'
'thousand_'
'theo'
'tf'
'tern_'
'tells_'
'tea'
'taxation_'
'tatsächlichen_'
'tall'
'tali'
'tal'
'tail'
'tabl'
'sz'
'systematic_'
'sver'
'surprised_'
'supplementary_'
'successes_'
'subsequently_'
'stream'
'strategie_'
'stories_'
'stores_'
'stor'
'stops_'
'stoff'
'stimulate_'
'steuer'
'ster'
'stem_'
'stellten_'
'steigt_'
'staying_'
'starts_'
'stammen_'
'stages_'
'ssion_'
'spin'
'spiel_'
'speziellen_'
'sozialer_'
'solar_'
'sm'
'slowdown_'
'ske'
'sicheren_'
'sichere_'
'showed_'
'shock_'
'shed_'
'sent'
'selling_'
'seg'
'seconds_'
'schwerer_'
'schutz'
'schrieb_'
'scha'
'scar'
'satz_'
'sake_'
'sah_'
'rän'
'rum'
'rov'
'ros'
'rolle_'
'roll'
'rock_'
'rm_'
'rle'
'rium_'
'ring'
'riffen_'
'rier'
'rid'
'reverse_'
'reu'
'ret'
'restricted_'
'restored_'
'resolutions_'
'representation_'
'renminbi_'
'rem'
'regulators_'
'regelmäßig_'
'refused_'
'reduziert_'
'recognised_'
'realer_'
'real'
'rc'
'rarely_'
'rant'
'rah'
'quo_'
'queries_'
'qualifi'
'puts_'
'pun'
'psycho'
'proud_'
'prosperous_'
'promising_'
'proc'
'privileged_'
'prinzip_'
'prev'
'preserve_'
'pools_'
'poet'
'pin'
'pher'
'personenbezogene'
'perception_'
'pens'
'peak_'
'ownership_'
'ov_'
'orte'
'operates_'
'oper'
'opa'
'oin'
'ogen'
'oftmals_'
'off'
'ock'
'oc'
'objects_'
'object_'
'nut'
'nowadays_'
'novel_'
'notwendige_'
'noti'
'normally_'
'nomi'
'nni'
'nn_'
'nn'
'niveau_'
'nik_'
'nic'
'nf'
'newspaper_'
'neuro'
'ndung_'
'nds_'
'nder'
'nden'
'nces_'
'nahm_'
'nachhaltigen_'
'mü'
'murder_'
'mpo'
'movie_'
'mos'
'modest_'
'mn'
'mm'
'mine_'
'minds_'
'mil'
'mie'
'mi_'
'methoden_'
'men'
'mediat'
'meat_'
'mankind_'
'manage'
'malaria_'
'mal'
'lösung_'
'lohn'
'logic_'
'llt_'
'llig'
'ller_'
'lle'
'liti'
'liefern_'
'lid'
'leichter_'
'legend'
'lebt_'
'lebens'
'lde_'
'lc'
'laufenden_'
'lar'
'langem_'
'kten_'
'kritisiert_'
'kra'
'kont'
'komme_'
'km'
'kli'
'klar'
'kl'
'key'
'kennt_'
'ken'
'justify_'
'jederzeit_'
'jedenfalls_'
'jahre'
'itte'
'ite'
'istan'
'iso'
'ising_'
'ira_'
'ion'
'invite_'
'intends_'
'intend_'
'inten'
'institutionelle_'
'instantly_'
'info_'
'inclusion_'
'inc'
'inadequate_'
'importantly_'
'imperative_'
'ile'
'ilde'
'ika'
'ik'
'igi'
'ideale_'
'ide'
'iche'
'ica_'
'ial'
'hyper'
'hr_'
'honest_'
'home'
'holes_'
'hinzufügen_'
'hier'
'hidden_'
'hervorheben_'
'hence_'
'heads_'
'hal'
'gy_'
'gy'
'guided_'
'gte_'
'gründen_'
'grand_'
'gr'
'got'
'gleichermaßen_'
'glass_'
'gg'
'gewisse'
'gewinn'
'getragen_'
'genuinely_'
'geni'
'gene'
'geltenden_'
'gegen'
'gefährlich_'
'gef'
'geb'
'gat'
'gaining_'
'führer_'
'fur'
'funded_'
'fte_'
'fried'
'frequency_'
'frau'
'fores'
'fli'
'festge'
'fern'
'farm_'
'far'
'fan_'
'fan'
'factory_'
'fac'
'extraordinary_'
'exploit'
'expert_'
'exemption_'
'exe'
'exception_'
'ewa'
'evident_'
'esp'
'esa'
'erweitern_'
'ert'
'erp'
'ermutigen_'
'erle'
'erla'
'erhielt_'
'erhebliche_'
'erheben_'
'erge'
'erfolgreiche_'
'erba'
'entwurf_'
'entwickelte_'
'entstanden_'
'entsch'
'ention'
'enthalt_'
'entgegen'
'enst'
'ense'
'enm'
'eng'
'enforcement_'
'encouraged_'
'empfangen_'
'elli'
'elektronischen_'
'einrichtungen_'
'einheitliche_'
'eingerichtete_'
'eingebracht_'
'eing'
'einf'
'eindeutige_'
'eien_'
'eh'
'effekt'
'ease_'
'ean'
'dürften_'
'duties_'
'dul'
'druck_'
'dringende'
'dri'
'drawing_'
'down'
'doors_'
'dominant_'
'diskutiert_'
'directory_'
'desto_'
'desk_'
'description_'
'depth_'
'deposit_'
'denjenigen_'
'delivery_'
'defeat_'
'declining_'
'decken_'
'dec'
'dealt_'
'deals_'
'das'
'dad_'
'cz'
'cro'
'creditors_'
'covering_'
'countless_'
'corresponding_'
'correctly_'
'coordinated_'
'concentration_'
'coherent_'
'coe'
'codecision_'
'closing_'
'cle'
'clause_'
'ckung_'
'cken'
'civilian_'
'ci_'
'chtet_'
'chte'
'chst'
'chsel'
'chne'
'chemical_'
'chau'
'chas'
'cent_'
'bü'
'brutale'
'breast_'
'bracht_'
'bought_'
'boot'
'bo_'
'bili'
'bewirken_'
'beweg'
'besonderer_'
'bel'
'behe'
'begründet_'
'beglückwünschen_'
'begegnen_'
'beeinflussen_'
'bedingungen_'
'bears_'
'band'
'ball'
'bai'
'awarded_'
'authors_'
'authoritarian_'
'auswirken_'
'atte'
'ations'
'ational_'
'ate'
'ase_'
'artists_'
'arte'
'ars_'
'arc'
'approaches_'
'appeared_'
'appearance_'
'anstreben_'
'angewiesen_'
'andern'
'anc'
'aktive_'
'ai_'
'ahr'
'aged_'
'affecting_'
'advised_'
'ado_'
'aden_'
'acquired_'
'achen_'
'abzusch'
'absolut_'
'abo'
'abgelehnt_'
'Zwei_'
'Zusätzlich_'
'Zu'
'Zimmerservice_'
'Zimbabwe_'
'Zerstörung_'
'Zen'
'Zei'
'XI'
'Wor'
'Wiederherstellung_'
'Werkzeuge_'
'Werk_'
'Weil_'
'Water'
'Vorlage_'
'Vorgehen_'
'Volks'
'Vielmehr_'
'Video'
'Verteidigungspolitik_'
'Verr'
'Verhaltens'
'Verfahrens'
'Vater_'
'VER'
'User_'
'Ursachen_'
'Until_'
'Untersuchungen_'
'Unterdrückung_'
'Uns_'
'Ung'
'US'
'Trend_'
'Tool_'
'Tom'
'Tim'
'Throughout_'
'The'
'Texas_'
'Temple_'
'Teilnehmer_'
'Tausende_'
'Taten_'
'TO_'
'Sur'
'Sunday_'
'Stä'
'Streitkräfte_'
'Stimm'
'Stan'
'Spielen_'
'Sing'
'Sign'
'Siehe_'
'Shin'
'Service'
'Senkung_'
'Semi'
'Section_'
'Sec'
'Schwellenländer_'
'Schreiben_'
'Schr'
'Schlag_'
'Schatten_'
'Schalt'
'Salz'
'Rücks'
'Rä'
'Rund'
'Rules_'
'Ris'
'Ric'
'Rest'
'Rent'
'Religion_'
'Rei'
'Ref'
'Rechtsstaatlichkeit_'
'Rechtss'
'Rats'
'Präsidentschaftswahl'
'Protein'
'Produzenten_'
'Procedure_'
'Post_'
'Pos'
'Pont'
'Plus_'
'Pis'
'Partnerschaften_'
'Park'
'PO'
'PI'
'PE'
'Original'
'Organization_'
'Offenheit_'
'Od'
'Obamas_'
'OS'
'OR'
'Normen_'
'None_'
'Nizza_'
'Nichtraucherzimmer_'
'Next_'
'Nachfolger_'
'NS'
'ND'
'Männern_'
'Muslime_'
'Mou'
'Missbrauch_'
'Minutes_'
'Milosevic_'
'Migration_'
'Medien'
'Mechanismus_'
'Material_'
'Maschinen_'
'Martin'
'Marktes_'
'Manhattan_'
'Mandat_'
'Manche_'
'Mana'
'Mala'
'Magi'
'MPEG_'
'MP3_'
'MM'
'Ltd_'
'Lis'
'Links_'
'Lim'
'Leitlinien_'
'Lehre_'
'Lehr'
'Legitimität_'
'Lac'
'Lab'
'LIN'
'LE_'
'Können_'
'Kooperations'
'Kontrollen_'
'Konkurrenz_'
'Konjunktur'
'Kirche_'
'Kha'
'Kernel_'
'Kau'
'Kategorie_'
'Kata'
'Kat'
'Kann_'
'KORE_'
'Jung'
'Jugend'
'Jen'
'Jackson_'
'Jack'
'Ir'
'Internal_'
'Instruments_'
'Innen'
'Inf'
'Il'
'ION_'
'ID'
'IBM_'
'IB'
'Hü'
'Höchst'
'Human'
'Hon'
'Heimat_'
'Hard'
'Hai'
'Güter_'
'Gut'
'Gulf_'
'Gua'
'Grünbuch_'
'Ghana_'
'Gh'
'Gewinn'
'Gewicht_'
'Gemeinschaften_'
'Gel'
'Gehminuten_'
'Geh'
'Gegend_'
'Geber'
'Garantie_'
'Ganz_'
'Games_'
'Gab'
'GR'
'Förder'
'Freunden_'
'Freizügigkeit_'
'Free'
'Fred'
'Food_'
'Flughäfen_'
'Flexibilität_'
'Fischerei'
'Firefox_'
'Finland_'
'Ferienwohnung_'
'Feld_'
'Family_'
'Fahrzeuge_'
'Eth'
'Erreichung_'
'Ern'
'Erbe_'
'Entscheidungs'
'Em'
'Einwanderer_'
'Einf'
'Eigentum_'
'Eigenschaften_'
'Eigenheim'
'Eigen'
'Edition_'
'EN'
'EL_'
'EI'
'EG_'
'ED_'
'Durchsetzung_'
'Dro'
'Dort_'
'Dokument_'
'Dir'
'Dim'
'Dev'
'Deflation_'
'Defizite_'
'Darum_'
'DS'
'Creati'
'Cre'
'Cou'
'Clubs_'
'Client_'
'Cla'
'Chu'
'Chr'
'Cent'
'Cari'
'Cannes_'
'Brok_'
'Bot'
'Black'
'Bl'
'Bez'
'Bett'
'Betrieb_'
'Beste'
'Beobachter_'
'Bene'
'Ben_'
'Beispielsweise_'
'Beh'
'Begleit'
'Bedürfnissen_'
'Bed'
'Beamten_'
'Baum'
'Based_'
'Base_'
'Ay'
'Außenminister_'
'Autor_'
'Ausr'
'Ausführung_'
'Auftr'
'Att'
'Anonymous_'
'Amtszeit_'
'Alm'
'Allein_'
'Alle'
'Ali'
'Aktivität_'
'Aktionäre_'
'Ah'
'Abschnitt_'
'Absatz_'
'Abf'
'Abe'
'ASEAN_'
'AD'
'86_'
'82_'
'77_'
'58_'
'53_'
'51_'
'35'
'28'
'2050_'
'1990s_'
'1980er_'
'185'
'183'
'04'
'. - _'
''', _'
'' '
'! '
' ; _'
' +_'
' + _'
' &#_'
' "'
'…"..._'
'…'
'ч'
'ütz'
'ütte'
'üstung_'
'ück'
'überwinden_'
'überwiegend_'
'überschreiten_'
'überraschend_'
'überlassen_'
'österreichischen_'
'ös'
'ökonomischen_'
'öffentlicher_'
'év'
'éri'
'éc'
'è_'
'äst'
'ändische'
'äg'
'án'
'Überzeugung_'
'Übernachtung_'
'Überdies_'
'Überblick_'
'Ö'
'zz'
'zwingen_'
'zweiter_'
'zweit'
'zutiefst_'
'zusammenarbeiten_'
'zukünftigen_'
'zugute_'
'zuf'
'zle'
'zione_'
'zins'
'zers'
'zentraler_'
'zel'
'zahlungen_'
'yn'
'yb'
'wound'
'wl'
'wissenschaftliche_'
'wis'
'wirklichen_'
'winning_'
'wherever_'
'wettbewerbs'
'westliche_'
'welcomes_'
'wai'
'wahr_'
'vulnerability_'
'vr'
'void'
'villages_'
'viable_'
'vez_'
'verwi'
'verstärkte_'
'verschaffen_'
'vermittelt_'
'vermitteln_'
'vermieden_'
'verkehr_'
'verk'
'vergi'
'verd'
'verboten_'
'verbot'
'verbl'
'verbindet_'
'verabschiedet_'
'ved_'
'ute_'
'urgency_'
'urg_'
'updated_'
'unz'
'unterschiedlich_'
'unterscheiden_'
'uns'
'unilateral'
'unentgeltlich_'
'undertake_'
'unan'
'umzu'
'umgekehrt_'
'umgehen_'
'umge'
'umfassen_'
'ultra'
'ultimate_'
'ugh_'
'uge'
'uft_'
'ufe'
'uf_'
'ues_'
'tätig'
'typisch_'
'ty'
'twice_'
'twentieth_'
'ttle'
'tsche'
'trou'
'tritt_'
'travel'
'transformation_'
'transfers_'
'transaction_'
'transa'
'tranquil'
'trained_'
'tragic_'
'tra_'
'tough_'
'tori'
'tions'
'tickets_'
'tica'
'thumbnail_'
'thumb_'
'throw_'
'themes_'
'territorial_'
'terra'
'tely_'
'tel'
'teilt_'
'teil'
'techniques_'
'teaching_'
'tam'
'sé'
'swi'
'sv'
'surroundings_'
'supervision_'
'suited_'
'sufficiently_'
'student_'
'strukturellen_'
'stored_'
'stimme_'
'stieg_'
'steigenden_'
'stattfindet_'
'stars_'
'star'
'stake_'
'staat_'
'ssel'
'squa'
'squ'
'split_'
'spiel'
'sph'
'sparen_'
'spanischen_'
'solches_'
'slu'
'slightly_'
'significance_'
'sig'
'sicher'
'shortly_'
'sharp_'
'shaping_'
'sey_'
'senden_'
'semi'
'seits_'
'screens_'
'score_'
'schwieriger_'
'schwach_'
'schuld'
'schu'
'schrittweise_'
'schm'
'schlicht_'
'schien_'
'schemes_'
'sat'
'räum'
'rz'
'rte'
'routes_'
'rounds_'
'roh'
'rog'
'robust_'
'rke'
'risen_'
'rip'
'right'
'rie_'
'rica'
'rh'
'revisi'
'reveal_'
'retirement_'
'restoration_'
'ress'
'renewed_'
'rene'
'rek'
'regulated_'
'refers_'
'rechtliche_'
'realized_'
'realize_'
'reactions_'
'rdin'
'ratio_'
'ram'
'rail_'
'rahmen_'
'quart'
'q'
'pushing_'
'province_'
'projekte_'
'produces_'
'proceed_'
'privacy_'
'pris'
'principal_'
'practically_'
'pper_'
'ppen_'
'possess'
'poses_'
'poli'
'play'
'planen_'
'pho'
'philosophy_'
'pharmaceutical_'
'perfekt_'
'peoples_'
'pensions_'
'peer_'
'partition_'
'parti'
'parlamentarischen_'
'parameters_'
'pala'
'ott'
'oth'
'ot'
'oste'
'organiz'
'organisiert_'
'organis'
'ordnungsgemäß_'
'oran'
'optional_'
'operated_'
'opens_'
'openness_'
'oon_'
'oo_'
'onal_'
'oli'
'ole_'
'officially_'
'ode'
'oci'
'observations_'
'ober'
'nä'
'nsi'
'nse'
'notes_'
'nobody_'
'nit'
'nett'
'negativen_'
'nea'
'ndl'
'ndi'
'nal'
'nahe'
'nah'
'nachhaltig_'
'nachdrücklich_'
'müsse_'
'mé'
'mäßigen_'
'märkte_'
'mt_'
'mp_'
'mou'
'mortgage_'
'monet'
'mitge'
'mete'
'meaningful_'
'mber'
'max_'
'mati'
'master'
'masse'
'marine_'
'manu'
'manifest'
'mand'
'makers_'
'lé'
'länd'
'luc'
'lte_'
'lowering_'
'lock_'
'llo'
'lling_'
'lli'
'literature_'
'listings_'
'lighting_'
'liberalization_'
'leverage_'
'leute_'
'lawyers_'
'langfristig_'
'lang'
'label'
'künftig_'
'kul'
'kre'
'kr'
'koreanische'
'kop'
'konzipiert_'
'kontextuellen_'
'kontextuell_'
'komplizierte'
'kommen'
'kol'
'klima'
'jahr'
'ix_'
'isen_'
'irk'
'ipe'
'ious_'
'ios'
'ional_'
'inva'
'instructions_'
'institutionellen_'
'inspir'
'ink'
'infolge_'
'infi'
'infected_'
'incredible_'
'inability_'
'illegalen_'
'illegale_'
'ilit'
'ike'
'ignoriert_'
'if'
'ieß'
'ies'
'iehen_'
'iegen_'
'ieg'
'ici'
'ichtig'
'ic'
'hy_'
'hoping_'
'honour_'
'hne_'
'hme'
'hm'
'hire_'
'hinzufugen_'
'heu'
'herunterladen_'
'here'
'hem'
'heat_'
'healthy_'
'headed_'
'hast_'
'hart_'
'harm_'
'harder_'
'gültige'
'guard'
'gu'
'gree'
'grand'
'grammatisch_'
'gramm_'
'gon'
'gnen_'
'gkeit_'
'gin'
'gewählte_'
'gewiss_'
'gestr'
'gestaltet_'
'geringer_'
'generous_'
'generell_'
'gend'
'gemeinschaft_'
'geme'
'gem'
'gefragt_'
'gebildet_'
'gebaut_'
'gear'
'gabe_'
'fügen_'
'ftig_'
'fristige'
'freundliches_'
'freedoms_'
'fraud_'
'fran'
'fought_'
'fly_'
'flexib'
'flash_'
'flag_'
'fit'
'firmly_'
'fill_'
'fier'
'ffer'
'festival_'
'fest'
'ferr'
'feindliche'
'fee_'
'featuring_'
'fanden_'
'fairness_'
'fahrt_'
'existiert_'
'exhibit'
'ew'
'evolution_'
'everywhere_'
'everybody_'
'etzen_'
'etz'
'ethi'
'esse'
'esen_'
'ese_'
'ese'
'erzielte_'
'erweitert_'
'erweisen_'
'ernsthafte_'
'erne'
'erkunden_'
'erkennt_'
'erhoben_'
'erfreut_'
'erarbeitet_'
'ep_'
'environmentally_'
'entwicklung_'
'entsprechen_'
'entgegen_'
'entdeckt_'
'entdeckst_'
'enn'
'enjoys_'
'engaged_'
'endet_'
'els_'
'electrical_'
'eise_'
'einziges_'
'eintreten_'
'einstellen_'
'eingel'
'eingehalten_'
'eignet_'
'ehm'
'ee'
'educated_'
'ech'
'eate'
'ea_'
'dy'
'dst'
'ds'
'drängen_'
'droh'
'drittens_'
'dot'
'dor'
'dokument'
'distr'
'disappear'
'disabled_'
'director_'
'digitale_'
'digit'
'df'
'devastating_'
'deutet_'
'destroying_'
'destroy_'
'dest'
'desktop_'
'desirable_'
'dera'
'denkt_'
'deli'
'definieren_'
'deck'
'debts_'
'dating_'
'cts_'
'cti'
'critique_'
'credits_'
'coverage_'
'courts_'
'counterparts_'
'corr'
'convey'
'conveniently_'
'convenience_'
'contradict'
'contextual_'
'confe'
'complicated_'
'compa'
'committees_'
'commit_'
'collect_'
'coa'
'cm_'
'cla'
'chie'
'chein'
'char'
'cet'
'cess'
'career_'
'campaign'
'camp_'
'calm_'
'bte'
'boosting_'
'bol'
'bil'
'bigger_'
'bezahl'
'bewegt_'
'betont_'
'bet'
'beschäftigen_'
'bert_'
'belong'
'beliebte'
'bel_'
'beitr'
'begrüßt_'
'befassen_'
'bef'
'beendet_'
'beding'
'beda'
'beantragen_'
'bail'
'autonomy_'
'authentic'
'ausschuss_'
'ausgerichtet_'
'ausgeführt_'
'ausgeb'
'ausf'
'aufrechtzuerhalten_'
'aufrecht_'
'aufgefordert_'
'audience_'
'attract_'
'attended_'
'attempting_'
'ato_'
'assist_'
'assess_'
'ash'
'ase'
'artificial_'
'arkt_'
'aren_'
'ard'
'archa'
'arbeite'
'anzunehmen_'
'anzeigen_'
'anwenden_'
'answers_'
'ansehen_'
'ano_'
'annually_'
'anis'
'angebracht_'
'ands_'
'amo'
'alist'
'alike_'
'alen_'
'ald'
'ala'
'ak_'
'agieren_'
'aga'
'affordable_'
'aff'
'advocate_'
'advances_'
'achtet_'
'achievements_'
'accounting_'
'acce'
'abwe'
'abuses_'
'abgeben_'
'abandoned_'
'Zwischen_'
'Zwecke_'
'Zwangs'
'Zugeständnisse_'
'Zucker'
'Zone_'
'Zivil'
'Zimmer'
'Yo'
'Work_'
'Whether_'
'Werke_'
'Werk'
'Wer'
'Well_'
'Websites_'
'Wea'
'Watson_'
'Wander'
'Wahrscheinlichkeit_'
'WC_'
'WASHINGTON_'
'Vorz'
'Vors'
'Vork'
'Vorgänger_'
'Virus_'
'Viertens_'
'Vic'
'Vertretern_'
'Vertrags'
'Versionen_'
'Verkauf_'
'Verg'
'Vat'
'Va'
'VI_'
'VE_'
'Unternehmer_'
'Unternehmer'
'Unterkünfte_'
'Unt'
'Uns'
'Unf'
'Umweltschutz_'
'Umstände_'
'Typ_'
'Trag'
'Tr'
'Tor_'
'Top_'
'Tochter_'
'Thu'
'Text'
'Teams_'
'Tarifa_'
'Tam'
'Take_'
'Tab'
'TE_'
'TB_'
'Stre'
'Strand'
'Stoffe_'
'Stat'
'Stahl'
'Spielraum_'
'Spezial'
'Sowohl_'
'Southern_'
'Sound_'
'Sound'
'Sol_'
'Sm'
'Siemens_'
'Sicherheitsa'
'Scotland_'
'Schä'
'Schwer'
'Schweizer_'
'Schwe'
'Schm'
'Schlusselwort_'
'Schlusselphrase_'
'Schiff'
'Satz_'
'Sal'
'SS'
'SE_'
'Rubrik_'
'Ros'
'Rom_'
'Roh'
'Rit'
'Respekt_'
'Republican_'
'Ren'
'Rem'
'Rela'
'Regional'
'Reaktionen_'
'RC'
'Quart'
'Qaeda_'
'Punkten_'
'Prozess'
'Provence_'
'Protocol_'
'Programm'
'Prague_'
'Pr'
'Porto_'
'Poli'
'Plenum_'
'Planung_'
'Philosophie_'
'Pha'
'Performance_'
'Passwort_'
'Palma_'
'Palm'
'Pad'
'PRI'
'PC'
'Out_'
'Ok'
'OM'
'OF_'
'Nova'
'Nin'
'Nik'
'Niederlande_'
'Netto'
'Net_'
'Nazi_'
'NG_'
'My'
'Mul'
'Mubarak_'
'Monitor'
'Mitt'
'Mil'
'Mexican_'
'Metro_'
'Meeres'
'Mechanismen_'
'Maschine'
'Mars'
'Marktwirtschaft_'
'Mario_'
'Marina_'
'Mar_'
'Manage'
'Mak'
'Mail'
'MT'
'Lohn'
'Listings_'
'Light'
'Later_'
'Lastly_'
'Las'
'Laeken_'
'Körper'
'Kurdish_'
'Kont'
'Konf'
'Kommunismus_'
'Kol'
'Kohle_'
'Kle'
'Klar'
'Kie'
'Kenntnisse_'
'Kapitalismus_'
'Kapazitäten_'
'Kai'
'Kad'
'Journalisten_'
'Jews_'
'Jane'
'Install'
'Ing'
'Infrastruktur'
'Info'
'Industrieländern_'
'Immobilien_'
'Imm'
'Ig'
'ING_'
'Hour_'
'Hor'
'Hit'
'History_'
'Hezbollah_'
'Had'
'HT'
'Guide_'
'Grün'
'Gottes_'
'Gold'
'Gewerkschaften_'
'Get_'
'Gesprächen_'
'Gener'
'Gene_'
'Ged'
'Gebrauch_'
'Gebi'
'Gaulle_'
'GP'
'Fü'
'Freedom_'
'Forscher_'
'Flugzeuge_'
'Flugzeug'
'Flo'
'Fischler_'
'Fern'
'Ferienwohnungen_'
'Fang'
'Fair'
'FS'
'Explorer_'
'Este'
'Equal'
'Entschlossenheit_'
'Elite_'
'Einnahmen_'
'Einkaufs'
'Ehe'
'Egyptian_'
'Effekt_'
'EP_'
'Durchschnitt_'
'Dublin_'
'Drive'
'Dritte_'
'Dritt'
'Dre'
'Dorf_'
'Dol'
'Director_'
'Diesen_'
'Dienst_'
'Denken_'
'Demo'
'Defence_'
'Debatten_'
'Dauer_'
'Datenschutz'
'Darstellung_'
'Daniel_'
'Dach'
'DA_'
'Croatia_'
'Count'
'Cooperation_'
'Content_'
'Consumer_'
'Conf'
'Commissioners_'
'Clearly_'
'Church_'
'Christmas_'
'Change_'
'Chamber_'
'Casino_'
'Café_'
'CD'
'Bürokratie_'
'Bucht_'
'Brand'
'Branche_'
'Boy'
'Boh'
'Ble'
'Bibliothek_'
'Beweise_'
'Bew'
'Beu'
'Betten_'
'Bestrebungen_'
'Besondere'
'Besitz_'
'Berichten_'
'Berg_'
'Beratung_'
'Benutzer'
'Belgien_'
'Beifall_'
'Beha'
'Bearbeitung_'
'Beachtung_'
'Be_'
'Band_'
'Baltic_'
'Bahn'
'Badezimmer_'
'Back_'
'Baby'
'BS'
'BB'
'Az'
'Aussichten_'
'Ausgangs'
'Aufsch'
'Aufs'
'Aufforderung_'
'Arte'
'Architektur_'
'Arbeitgeber_'
'Anträge_'
'Ano'
'Angl'
'Angebots'
'Amts'
'Alternativen_'
'Alta'
'Album_'
'Aktionsplan_'
'Aktions'
'Aktien_'
'Afrikas_'
'Abteilung_'
'Absch'
'Abbas_'
'Abb'
'AKP_'
'AA'
'92_'
'900_'
'73'
'68_'
'67_'
'61_'
'600_'
'57_'
'19th_'
'1985_'
'1979_'
'1960_'
'1956_'
'1900_'
',/_'
', ‘_'
'+ _'
'( _'
'%_'
'% '
' ("_'
' %._'
' %'
'” '
'’'
'я_'
'я'
'м_'
'и_'
'ε'
'üssen_'
'üge_'
'übersch'
'überdenken_'
'überd'
'öse'
'ön'
'öh'
'öge'
'ô'
'í_'
'ë'
'él'
'ç'
'ässe'
'ähnlicher_'
'äh'
'án_'
'ßnahmen_'
'Übernahme_'
'Äußerungen_'
'Ärzte_'
' –, _'
'}}) _'
'| _'
'{_'
'zwölf_'
'zweitens_'
'zwangsläufig_'
'zuwe'
'zunehmende_'
'zunehmen_'
'zt'
'zis'
'zige'
'zig_'
'zierte'
'ziel_'
'zeug'
'zentral_'
'zeigte_'
'ystems_'
'younger_'
'yn_'
'ym'
'yields_'
'yield_'
'yea_'
'ycl'
'yc'
'xe'
'wünscht_'
'wu'
'worrying_'
'worried_'
'wonder'
'wohin_'
'wn'
'withdrawal_'
'widmen_'
'weste'
'weshalb_'
'werten_'
'werte'
'wenigsten_'
'weiten_'
'weis'
'wechsel'
'wea'
'watch'
'warrant'
'ward'
'wann_'
'wander'
'vorsieht_'
'vorliegt_'
'vorgestellt_'
'virtuelle'
'viewed_'
'videos_'
'veränderte'
'verä'
'verursachen_'
'vertraut_'
'verte'
'verständlich_'
'verspricht_'
'verschi'
'vermi'
'verlor_'
'verkaufen_'
'verhältnis_'
'verfügbaren_'
'verbreitet_'
'verbinden_'
'verb'
'veil'
'uti'
'uten_'
'usch'
'ury_'
'urren'
'urn'
'uring_'
'urge'
'urf_'
'upt'
'uo'
'unterscheidet_'
'unte'
'unres'
'unp'
'unin'
'unfair_'
'unemployed_'
'uneingeschränkt_'
'underway_'
'understands_'
'undermining_'
'unbea'
'unabhängige_'
'umi'
'umgehend_'
'umgeb'
'umb'
'ula_'
'uelle'
'ud_'
'ub_'
'ture'
'tube_'
'très_'
'tric'
'trib'
'trenn'
'trea'
'travellers_'
'trategie_'
'trat_'
'transnational_'
'transitional_'
'transformed_'
'trains_'
'tragedy_'
'traditions_'
'trade'
'trace'
'tr'
'toll_'
'tol'
'tliche_'
'tiv'
'thro'
'thre'
'tho'
'thirds_'
'thir'
'thin'
'theme_'
'theater_'
'tg'
'territoriale'
'termin'
'temp'
'telling_'
'teils_'
'technologischen_'
'tech_'
'tec'
'tas_'
'tant'
'tab'
'südlich_'
'sympathy_'
'suspended_'
'sus_'
'surveillance_'
'surre'
'sup'
'suggestions_'
'stü'
'stuf'
'strict_'
'strengthened_'
'strategi'
'stopped_'
'stopp'
'stoffe_'
'stehenden_'
'stea'
'starters_'
'stal'
'stagnation_'
'sste'
'ssige'
'spät_'
'sprachliche'
'sprachen_'
'speziell_'
'spectacular_'
'specifications_'
'spe'
'soul_'
'sou'
'sorgfältig_'
'solch_'
'slopes_'
'skin_'
'ski'
'sixt'
'signing_'
'shot_'
'shortcomings_'
'shore_'
'shoot'
'shire_'
'shipping_'
'ship'
'shing_'
'shel'
'shareholders_'
'seu'
'settings_'
'servi'
'secondary_'
'script_'
'sco'
'schwere_'
'schlechter_'
'schaden_'
'scene_'
'scen'
'sba'
'safer_'
'sad'
'rück'
'ruch'
'rth'
'roots_'
'rooted_'
'ron_'
'roles_'
'rod'
'roc'
'rob'
'roa'
'rmo'
'rli'
'riti'
'rif'
'rg_'
'returning_'
'retain_'
'responded_'
'researchers_'
'rese'
'reproduction_'
'rena'
'relevante'
'reihe'
'regulate_'
'register_'
'regelung_'
'refuse_'
'recruit'
're'
'rba'
'rasche'
'ranc'
'ran'
'rain'
'rage_'
'rad_'
'racing_'
'rab'
'quote'
'quotas_'
'quin'
'quil'
'question'
'quel'
'quantities_'
'pue'
'publicly_'
'ption_'
'präsent'
'proximity_'
'proof_'
'promoted_'
'professionelle'
'produzieren_'
'produkt'
'printed_'
'preparing_'
'predict'
'ppe_'
'positiv_'
'posi'
'porte'
'politischem_'
'pm_'
'ple_'
'plat'
'plane_'
'plan'
'piel_'
'piel'
'persuade_'
'persistent_'
'persist'
'permit_'
'pendi'
'pen_'
'pel_'
'pay'
'patio_'
'pakete_'
'pain_'
'overwhelming_'
'overn'
'outset_'
'outs_'
'outlined_'
'outcomes_'
'orp'
'originally_'
'ores_'
'ord'
'orc'
'ops_'
'openly_'
'one'
'ologie_'
'olo'
'observed_'
'obli'
'nützlich_'
'nächster_'
'ntie'
'nsb'
'np'
'noticed_'
'nos_'
'nos'
'normale_'
'nommen_'
'noi'
'nlage'
'nkt_'
'nism'
'nische_'
'ning'
'niert_'
'niedriger_'
'nha'
'nger'
'nes'
'ners_'
'neoliberal'
'neighbourhood_'
'negotiation_'
'neck'
'native_'
'nationalism_'
'mächtigen_'
'm²_'
'mutige'
'museum_'
'muni'
'mpi'
'mot'
'moralischen_'
'mora'
'moon_'
'moderate_'
'moderate'
'mittleren_'
'missing_'
'missbrauch'
'mirror'
'minorities_'
'min'
'mill'
'mes'
'meri'
'mend'
'meistens_'
'medieval_'
'mate'
'marke'
'maritime_'
'mano'
'mani'
'mandatory_'
'managers_'
'mailing_'
'mage'
'machten_'
'm2_'
'löst_'
'lö'
'längst_'
'ly'
'ltung'
'loses_'
'los'
'lokaler_'
'loi'
'logy_'
'logie_'
'loc'
'loan_'
'llers_'
'lk'
'lip'
'ling'
'line'
'liebe_'
'license_'
'liability_'
'lia'
'lern_'
'leib'
'lder_'
'lde'
'laute'
'lan_'
'lan'
'lacking_'
'künftigen_'
'kö'
'käm'
'kurzfristigen_'
'kti'
'kritischen_'
'konst'
'kis_'
'kill_'
'kid'
'kg_'
'kenn'
'kehrt_'
'kata'
'kana'
'jährliche_'
'jä'
'justification_'
'jug'
'jointly_'
'jo_'
'jer'
'jed'
'ius_'
'ister'
'issu'
'issen_'
'isse'
'islamischen_'
'ish'
'ised_'
'irre'
'iro_'
'irgendeine'
'ione'
'io'
'interpretation_'
'interp'
'internationally_'
'intern'
'intense_'
'intelligent_'
'installieren_'
'inspection_'
'inner'
'inn'
'inj'
'inhabitants_'
'infer'
'inen_'
'indoor_'
'individuellen_'
'individuali'
'indischen_'
'indicators_'
'ind'
'incon'
'inclusive_'
'incidents_'
'inan'
'impos'
'imbalances_'
'ima'
'ille_'
'ille'
'illa'
'ild_'
'ignor'
'ifi'
'ierenden_'
'ieh'
'ied'
'ider'
'ideology_'
'ically_'
'ias_'
'humanity_'
'hum'
'hro'
'hospitality_'
'holders_'
'hohem_'
'hle_'
'hinder'
'hinaus'
'highlights_'
'hie'
'heutzutage_'
'hervorragenden_'
'hersteller_'
'hea'
'hb'
'harmonisation_'
'hani'
'haltung_'
'halte'
'hal_'
'haft_'
'günstig_'
'gue_'
'grünen_'
'gründe'
'größe'
'gross_'
'grenzen_'
'gratulieren_'
'grass'
'grade'
'governed_'
'gol'
'globe_'
'globaler_'
'gkeiten_'
'gio'
'gingen_'
'ghe'
'gger'
'geäußert_'
'gewünschten_'
'gewählten_'
'gewinnt_'
'gewi'
'gewe'
'gesunde'
'gestattet_'
'gestartet_'
'gespeichert_'
'geräumige'
'geprägt_'
'genetische'
'gelingt_'
'gelassen_'
'gelang_'
'gehabt_'
'gegangen_'
'gefährlichen_'
'gefährdet_'
'gefa'
'gedr'
'gedacht_'
'ged'
'gebieten_'
'gation_'
'gate'
'gam'
'ftig'
'frühere_'
'freely_'
'franc'
'fortune_'
'forests_'
'fordere_'
'foot'
'follows_'
'folgende_'
'folder_'
'fol'
'focuses_'
'flug'
'flee'
'flag'
'fine'
'findings_'
'finances_'
'fied_'
'fic'
'fi_'
'ffic'
'fests'
'feelings_'
'fans_'
'fahrt'
'fache'
'ext'
'exporte'
'expertise_'
'experiment_'
'expanding_'
'execution_'
'excluded_'
'examine_'
'ewe'
'evo'
'ev'
'eute'
'euros_'
'euren_'
'ett'
'essa'
'esc'
'erz'
'erweiterten_'
'ertig'
'ertet_'
'erstklassige'
'ersetzen_'
'erre'
'erneuerbare_'
'erlassen_'
'erische'
'erheblichen_'
'erforderliche_'
'eon'
'entspr'
'ents'
'entre'
'entl'
'entity_'
'entertainment_'
'ente'
'ensures_'
'ensch'
'energie_'
'ener'
'endgültigen_'
'empower'
'employed_'
'empfängt_'
'empfehlen_'
'embrace_'
'eliminated_'
'elf_'
'elegante_'
'eis'
'einschl'
'einsch'
'einb'
'ego'
'economically_'
'eber'
'eba'
'durchsetzen_'
'drives_'
'drama'
'dominance_'
'diplomacy_'
'dina'
'differently_'
'designer_'
'deregulation_'
'denk'
'demonstrates_'
'demanded_'
'declar'
'dare'
'damaged_'
'customs_'
'cur'
'cue'
'cua'
'cred'
'countryside_'
'convince_'
'consists_'
'conservation_'
'connect_'
'confront_'
'confi'
'component_'
'competences_'
'como_'
'command'
'combine_'
'colors_'
'colo'
'codes_'
'coc'
'clock_'
'clarity_'
'ckte'
'cket_'
'circle_'
'cia_'
'chli'
'chart'
'chant'
'chan'
'chal'
'centr'
'cent'
'caught_'
'cas_'
'cari'
'capt'
'capabilities_'
'bus'
'bung_'
'bubble_'
'brutal_'
'brid'
'breath'
'break'
'brain_'
'bombe'
'bod'
'boat_'
'block'
'blind'
'blick_'
'blick'
'blank'
'bisherigen_'
'bir'
'binding_'
'bewältigen_'
'bewiesen_'
'beweist_'
'betrieben_'
'betr'
'bet_'
'bestrafen_'
'beschreibt_'
'berichten_'
'beri'
'berg'
'berechtigt_'
'berechnet_'
'bekräftigt_'
'beispiel'
'beings_'
'behi'
'begrenzt_'
'bedroht_'
'bedenk'
'basically_'
'base'
'bags_'
'backs_'
'awa'
'avi'
'avec_'
'aux_'
'aussch'
'ausreichende_'
'auslösen_'
'ausgewogene'
'ausgeschlossen_'
'ausges'
'ausführliche'
'aufzubauen_'
'aufget'
'auch'
'auber'
'att_'
'atra'
'ato'
'ation'
'aste'
'assen_'
'artige'
'arrest_'
'arme_'
'argumentieren_'
'arge'
'archive_'
'appointment_'
'apo'
'anzukurbeln_'
'anz'
'antin'
'anst'
'anspr'
'anne'
'anlagen_'
'anischen_'
'anim'
'angemessen_'
'angef'
'angeblich_'
'amtierende'
'alu'
'alte'
'allocated_'
'alle'
'alarm'
'aktivieren_'
'airports_'
'airlines_'
'ahn'
'ahl_'
'ahl'
'aggregate_'
'aft_'
'adhere'
'adequately_'
'adapt'
'actor_'
'accurate_'
'academic_'
'aca'
'ac'
'abstimmen_'
'abschl'
'abr'
'able'
'`_'
']], [[_'
'] '
'Zw'
'Zuständigkeiten_'
'Zurück'
'Zukunfts'
'Zinssätze_'
'Zins'
'Zielen_'
'Zer'
'Yen_'
'XP_'
'Wäscheservice_'
'Wärme'
'Wr'
'Wirtschaftspolitik_'
'Wireless_'
'Wind_'
'Wilhelm_'
'Whi'
'Wes'
'Werbung_'
'Weltraum'
'Wechselkurs_'
'Watch_'
'Wall'
'Wai'
'Wahr'
'Wahlkampf'
'Vorw'
'Vorstellungen_'
'Vorr'
'Vorhaben_'
'Vier'
'Vie'
'Vertr'
'Verteilung_'
'Vermi'
'Verluste_'
'Vereinigung_'
'Veranstaltung_'
'Ursache_'
'Urlaubs'
'Unters'
'Universitäten_'
'Ungarn_'
'UNESCO_'
'UM'
'Tür_'
'Tun'
'Tsa'
'Trä'
'True_'
'Tourismus_'
'Tourism_'
'Torre'
'Top'
'Tod'
'Thursday_'
'Thr'
'Thomas_'
'Thai_'
'Tempo_'
'Telefon_'
'Tagung_'
'TT'
'TR'
'Südafrika_'
'Syn'
'Sy'
'Supreme_'
'Suites_'
'Studien_'
'Struktur'
'Streit'
'Stream'
'Stimmung_'
'Stiftung_'
'Steuereinnahmen_'
'Stand'
'Stabilitäts'
'Staatsf'
'Sports_'
'Spieler'
'Sor'
'Sogar_'
'Smoking_'
'Situated_'
'Sicherheitspolitik_'
'Shuttle_'
'Shop_'
'Sevilla_'
'Set'
'Sei'
'Screen'
'Schre'
'Schicksal_'
'Satelliten'
'Salo'
'Sahara_'
'STO'
'Rü'
'Rub'
'Ross'
'Ronald_'
'Richt'
'Rh'
'Review_'
'Ressourcen'
'Resolution_'
'Reso'
'Repr'
'Renaissance_'
'Reisen_'
'Regen'
'Red'
'Real_'
'Radio'
'RER_'
'RA_'
'Question_'
'Queen_'
'Quant'
'Qatar_'
'Pul'
'Prot'
'Program_'
'Professor_'
'Pop'
'Poker'
'Pod'
'Piazza_'
'Pflanzen'
'Petr'
'Personal'
'Pers'
'Peking_'
'Patten_'
'Patri'
'Pap'
'Panorama'
'Pak'
'PS_'
'Out'
'Others_'
'Ost_'
'Orient'
'Olympic_'
'Oh'
'Og'
'OT'
'Null'
'Normal'
'Nor'
'Nielson_'
'Nichtraucherzonen_'
'Nehmen_'
'Neg'
'Natura_'
'Nachhaltigkeit_'
'Nachbar'
'Mä'
'Monte'
'Mond'
'Mir_'
'Mio_'
'Minderheit_'
'Medizin_'
'Mau'
'Mart'
'Marg'
'Marco_'
'Manchmal_'
'Lü'
'Lösungs'
'Lärm'
'Luca'
'Los'
'Long_'
'List_'
'Link_'
'Life_'
'Libya_'
'Library_'
'Les_'
'Lehrer_'
'Lebensmittel_'
'Leave_'
'Lands'
'Landes'
'LO'
'Kö'
'Kru'
'Kriminalität_'
'Kreuz'
'Kremlin_'
'Kosten'
'Kos'
'Konzept'
'Kontin'
'Kontakt'
'Kompetenzen_'
'Kolonial'
'Kollegin_'
'Klimawandels_'
'Kerry_'
'Kern_'
'Kei'
'Kart'
'Kap'
'Kamera_'
'Kam'
'Kalten_'
'Kali'
'KI'
'Jur'
'Jud'
'It'
'Islamist_'
'Interessen'
'Innerhalb_'
'Ink'
'Inhalte_'
'Ingenieur'
'Infolgedessen_'
'Industry_'
'Indem_'
'Inc_'
'Imp'
'IV_'
'ICA'
'Häfen_'
'Hypotheken_'
'Hunger_'
'Holiday_'
'Hohe_'
'High'
'Herzlich'
'Herz_'
'Herb'
'Her_'
'Heil'
'Hau'
'Hardware_'
'Handlungs'
'HD_'
'HD'
'Guan'
'Grö'
'Großbritanniens_'
'Governance_'
'Gleich'
'Gipfeltreffen_'
'Gibt_'
'Gewährleistung_'
'Gewinn_'
'Get'
'Gestatten_'
'Geschäft_'
'Germans_'
'Genu'
'Geno'
'Generalsekretär_'
'Genau_'
'Gemeinden_'
'Geheim'
'Gegen_'
'Gat'
'Gast_'
'Gan'
'Galileo_'
'Gal'
'GM'
'Funktions'
'Fundamental_'
'Frühling_'
'Früh'
'Frank'
'Francisco_'
'Franc'
'Fraktionen_'
'Four_'
'Fortunately_'
'Fol'
'Flug_'
'Florida_'
'Fisch_'
'Fire'
'Finanzmärkte_'
'Filme_'
'Few_'
'Ferien'
'Feld'
'Feier'
'Fatah_'
'Farbe_'
'Fam'
'Fallout_'
'Fahrrad'
'FD'
'FC_'
'Extrem'
'Exporte'
'Excellent_'
'Evo'
'Europol_'
'Etwa'
'Et'
'Essen_'
'Erz'
'Erm'
'Erf'
'Entwicklungshilfe_'
'Engine_'
'Enc'
'Eingabe'
'Effektivität_'
'Eco'
'EU'
'ER_'
'ED'
'Dutch_'
'Dun'
'Drittländern_'
'Draghi_'
'Dos'
'Donald_'
'Dollars_'
'Dokumente_'
'District_'
'Differenz_'
'Dienst'
'Det'
'Deck'
'Deb'
'Davi'
'Danish_'
'DR'
'DL'
'Custom'
'Cup_'
'Culture_'
'Cru'
'Could_'
'Come_'
'Code'
'Churchill_'
'Children_'
'Chief_'
'Chat'
'Ch'
'Castle_'
'Carlo_'
'Cand'
'CU'
'CP'
'CM'
'Bür'
'Butt'
'Bud'
'Branchen_'
'Bolkestein_'
'Binnen'
'Beurteilung_'
'Betroffenen_'
'Betrag_'
'Bet'
'Berufs'
'Bereitstellung_'
'Behauptung_'
'Befürchtungen_'
'Basic_'
'Barón_'
'Ban_'
'Bai'
'BM'
'Avenue_'
'Autonomie_'
'Aussage_'
'Ausgangspunkt_'
'Ausgaben'
'Ausflüge_'
'Ausf'
'Aufzug_'
'Arti'
'Arbeitskräfte_'
'Ara'
'Aqua'
'Anpassungen_'
'Ander'
'Alters'
'Allgemein'
'Alex'
'Agrarpolitik_'
'Adria'
'Abu_'
'Absichten_'
'Abre'
'Abkommens_'
'Abgesehen_'
'Abendessen_'
'= _'
'99_'
'75'
'62_'
'33'
'32'
'29'
'236'
'2016_'
'181'
'120_'
'. “_'
'. &#_'
'- (_'
'+'
'))._'
'", "_'
'") _'
' {{_'
' - '
' ,_'
'“-_'
'“ – _'
'– '
'א'
'ро'
'о_'
'н'
'б'
'še'
'ł'
'ürlich'
'ügen_'
'üge'
'ücke'
'üche_'
'übrigens_'
'übrig_'
'überwachen_'
'übers'
'überr'
'übermäßige'
'öse_'
'örtlichen_'
'ören_'
'öpf'
'ökonomische_'
'öhl'
'öf'
'ñ'
'ín'
'ça'
'äumt_'
'äume_'
'äuft_'
'äufe_'
'ätte'
'ärmsten_'
'ärk'
'änk'
'änden_'
'än'
'ährung_'
'ße_'
'Übertragung_'
'Übersch'
'Änderungsanträgen_'
'Änderungs'
'» _'
'°_'
' '
'zügig'
'züge'
'zö'
'zurückzuführen_'
'zukünftige_'
'zukommen_'
'zo_'
'zip'
'zil'
'zierungs'
'zierung_'
'zier'
'zien'
'ziele_'
'ziel'
'zerstören_'
'zerstör'
'zent'
'zehnte'
'yen_'
'yard_'
'yar'
'wünschenswert_'
'wü'
'wort'
'worker_'
'wood'
'wohn'
'witness_'
'winner_'
'wichtiges_'
'whenever_'
'wettbewerbsfähige'
'wert'
'werken_'
'werke_'
'wen_'
'weltweite'
'weiterzu'
'weite_'
'wed_'
'wechseln_'
'wechsel_'
'wealthy_'
'weaker_'
'water'
'wart'
'warned_'
'wand'
'wahl'
'vy_'
'vs'
'vorzunehmen_'
'vorzulegen_'
'vorstell'
'vorg'
'vore'
'vorbe'
'vorange'
'voran'
'von'
'volunteers_'
'voices_'
'vin_'
'villa_'
'vid'
'verzeichnen_'
'verwiesen_'
'verwei'
'verwandeln_'
'verwa'
'versus_'
'verspr'
'verse'
'verschwende'
'verschmutz'
'verlorene'
'verliert_'
'veri'
'verhelfen_'
'verbringen_'
'verbre'
'verbrauch'
'veran'
'uver'
'utr'
'ussi'
'use'
'usa'
'urm_'
'urf'
'ural'
'upe'
'unzählige_'
'unwe'
'unwahrscheinlich_'
'untr'
'untersuchen_'
'unterste'
'untereinander_'
'unn'
'unmittelbare_'
'universe_'
'unhe'
'ungsz'
'ungeachtet_'
'undermine_'
'unden'
'ume_'
'ulate'
'ukt'
'uin'
'uer'
'ua_'
'täte'
'turno'
'tungs'
'tting_'
'tro_'
'treasur'
'tras'
'transparente'
'transferred_'
'transc'
'transatlantischen_'
'trafficking_'
'tradition'
'tradable_'
'tos'
'torture_'
'tolerance_'
'tn'
'tle_'
'tipp'
'tight'
'tigen_'
'tiefe_'
'tiefe'
'tied_'
'tia'
'thr'
'thou'
'thi'
'thermal_'
'teuer'
'tet_'
'temperature_'
'tem_'
'tem'
'teach_'
'tation_'
'taste'
'tape'
'tangible_'
'tan'
'szen'
'systemic_'
'syn'
'sustained_'
'surpluses_'
'surge'
'supplied_'
'suddenly_'
'substantially_'
'stunde_'
'stuff_'
'studied_'
'struck_'
'strikes_'
'strictly_'
'stream_'
'straight_'
'strai'
'storm'
'stood_'
'still'
'stern'
'steri'
'stell'
'steam_'
'stamm'
'ssystem'
'sst'
'ssl'
'späten_'
'speeches_'
'specialities_'
'speaker_'
'sow'
'sound'
'sophisticated_'
'songs_'
'sofa_'
'socio'
'smit'
'smart_'
'slight_'
'situ'
'sit'
'sions_'
'sinken_'
'sierte'
'sier'
'sichtig'
'sicherstellen_'
'shocks_'
'sge'
'sett'
'servers_'
'sequence'
'separate'
'senk'
'seemingly_'
'seas'
'scu'
'script'
'schönsten_'
'schnelles_'
'schnellen_'
'schn'
'schla'
'schiff_'
'schafts'
'scan'
'sberei'
'satisfied_'
'sat_'
'sarge'
'sani'
'sand_'
'sab'
'rückg'
'räge_'
'rungen_'
'rulers_'
'rukt'
'ruins_'
'rta_'
'rse'
'ror'
'romantic_'
'robe'
'rnen_'
'river_'
'rival'
'rische_'
'ript'
'rien_'
'riche'
'rian_'
'rhe'
'rf_'
'reve'
'retro'
'rete'
'resulted_'
'restrict_'
'restoring_'
'resign'
'repro'
'reo'
'reminded_'
'rela'
'reise_'
'reine'
'reif'
'reichsten_'
'reiben_'
'reh'
'regionen_'
'regierung_'
'regel'
'referring_'
'referen'
'reco'
'rechnen_'
'rechen_'
'reasonably_'
'realise_'
'readily_'
'ration'
'ratification_'
'raph'
'rand'
'raises_'
'rage'
'racism_'
'qualitative_'
'qualifications_'
'qu'
'pull_'
'pto'
'prüf'
'provider_'
'prote'
'proportion_'
'prophe'
'promptly_'
'proliferation_'
'projekt_'
'programming_'
'profitiert_'
'professor_'
'prof'
'produktive_'
'produkte_'
'producer_'
'proceed'
'problemati'
'pricing_'
'presum'
'presse'
'presenting_'
'preferences_'
'praktischen_'
'pped_'
'ppe'
'pou'
'posts_'
'postponed_'
'porta'
'popula'
'polnischen_'
'politician_'
'politi'
'plung'
'plu'
'pledged_'
'pig'
'pet'
'pert'
'persona'
'pe'
'path'
'patents_'
'patent'
'passes_'
'partic'
'pan_'
'pakistanische'
'painful_'
'oy'
'owe'
'ow_'
'overview_'
'overl'
'outl'
'oto'
'orientierte'
'organ'
'orfen_'
'optimale_'
'opponents_'
'ook_'
'ommen'
'olle'
'oldest_'
'ola'
'oi'
'ohnehin_'
'offset_'
'officers_'
'offenbar_'
'odie'
'oche'
'occupied_'
'occup'
'occ'
'oca'
'observation_'
'obliged_'
'objekt'
'obe'
'nötigen_'
'nzi'
'num'
'ntr'
'ntion_'
'nter'
'nous_'
'notable_'
'norm'
'nonetheless_'
'nom_'
'nne'
'nko'
'nisch'
'nineteenth_'
'niedrige'
'nhei'
'new'
'nent'
'nenn'
'nell'
'negotiating_'
'negotiate_'
'ndliche'
'nde'
'nche'
'nati'
'nas'
'namens_'
'nali'
'nai'
'nag'
'nachfrage_'
'nac'
'müh'
'mäßig_'
'má'
'muslimischen_'
'multinational'
'multimedia_'
'mul'
'mt'
'mouse_'
'mounting_'
'mount_'
'mortgages_'
'moralisch_'
'moderner_'
'modell_'
'mitteln_'
'mittelalterliche'
'missile_'
'minder'
'mente_'
'mental'
'ment'
'melt'
'mehrs'
'mehr'
'mbl'
'match'
'massage_'
'mas_'
'mart'
'mar_'
'manipulation_'
'mangel'
'man'
'magic_'
'lys'
'lution'
'lungen_'
'lon_'
'llte_'
'liquid'
'linguistic_'
'lings_'
'light'
'letter_'
'lera'
'leiten_'
'leidet_'
'leichen_'
'legale'
'lec'
'lebenslange'
'lays_'
'laying_'
'langfristige'
'labelling_'
'kurzfristig_'
'kurzer_'
'kurzen_'
'kung'
'ktionen_'
'ksi'
'kräfte_'
'kriege'
'kostenlose_'
'koordinierte'
'konzept'
'konstruktive_'
'konferenz_'
'komplexer_'
'komplexen_'
'komplexe_'
'kno'
'kni'
'kit'
'kirche_'
'kilometers_'
'kern_'
'junger_'
'jun'
'jet'
'jan'
'ito'
'iter'
'ism'
'isc'
'irischen_'
'iri'
'irakischen_'
'investing_'
'interessen_'
'interessanten_'
'interessante_'
'innenpolitische'
'initiated_'
'ining_'
'infringement_'
'industrialis'
'indicati'
'inder_'
'incite'
'immer'
'imagin'
'illegal'
'ii'
'iew'
'ieden'
'iede'
'ieben_'
'iden_'
'ichtete'
'ichten_'
'icherung'
'icher'
'iche_'
'icate'
'hunting_'
'hundert'
'human'
'hti'
'hte'
'hs'
'hoped_'
'hop_'
'honor_'
'hole_'
'hol_'
'hochwertige'
'hnen_'
'hmen_'
'historically_'
'hil'
'hervorgehoben_'
'herstell'
'herausstellen_'
'herausge'
'heran'
'heart'
'heading_'
'hazardous_'
'haz'
'hause'
'han_'
'han'
'halb'
'hair_'
'hai'
'haften_'
'had'
'gt'
'großartig'
'grenzt_'
'gran'
'governmental_'
'globale'
'git'
'gierung_'
'gezielte'
'gewidmet_'
'getötet_'
'geti'
'gestatten_'
'gest'
'geschw'
'geru'
'gers_'
'geringen_'
'geregelt_'
'gens'
'geniessen_'
'genes_'
'gener'
'gende'
'gemeinschaftlichen_'
'gemeinsamer_'
'gede'
'geblieben_'
'gd'
'gay_'
'ganze'
'führ'
'fühl'
'fällig_'
'fundamental'
'fru'
'friend_'
'freilich_'
'frag'
'fra'
'forth_'
'fortgesetzte'
'formi'
'formats_'
'format'
'forge_'
'forcing_'
'fn'
'fizier'
'fix_'
'fiskal'
'finished_'
'finanzierung_'
'fin_'
'fiel_'
'ffi'
'ffen'
'festgelegten_'
'fei'
'feet_'
'favourite_'
'fassen_'
'fascinating_'
'farms_'
'facilitated_'
'eßen_'
'extremen_'
'extending_'
'expressing_'
'explains_'
'explained_'
'experiences_'
'expenditures_'
'existed_'
'ex'
'evaluat'
'europ'
'eure_'
'eto'
'eti'
'ethnischen_'
'esto'
'ession_'
'essi'
'eso'
'erwähnen_'
'erwerben_'
'erungen_'
'erlangt_'
'eric'
'erhältlich_'
'erarbeiten_'
'episode_'
'entscheidend_'
'entdecken_'
'enne'
'enge'
'engagierte'
'engage_'
'enforced_'
'enemy_'
'ends_'
'endgültig_'
'ender_'
'endanger'
'encourages_'
'ences_'
'enb'
'employ'
'emm'
'elites_'
'eister'
'einladende'
'einh'
'einfl'
'einbezogen_'
'eigentlichen_'
'eigentliche_'
'eid'
'eich'
'ehrgeizige'
'eho'
'egt_'
'ega'
'effiziente_'
'effizient_'
'ection'
'echt'
'ebu'
'dw'
'durchschnittlich_'
'durchg'
'dun'
'duct'
'dry_'
'dru'
'drinking_'
'downtown_'
'downs'
'doubl'
'domain_'
'dog_'
'dle'
'dition'
'distinction_'
'disorder_'
'disi'
'discretion_'
'discret'
'discovery_'
'discourse_'
'dischen_'
'disagree_'
'directed_'
'diplomats_'
'dine'
'dil'
'dignity_'
'digitalen_'
'dieselbe_'
'dge'
'detaillierte'
'desi'
'dere'
'derartiger_'
'depression_'
'depressed_'
'deposits_'
'deployment_'
'denied_'
'demokratisch_'
'demnächst_'
'demi'
'delicate_'
'dei_'
'defining_'
'decent_'
'deca'
'debating_'
'deadl'
'daf'
'dac'
'curs'
'cula'
'creativity_'
'crat'
'crack'
'covers_'
'courage_'
'council_'
'cot'
'cost'
'coordinat'
'conventions_'
'contributing_'
'contacts_'
'construct_'
'consent_'
'confusion_'
'confirmation_'
'configuration_'
'condemn_'
'comput'
'compre'
'competing_'
'compar'
'communism_'
'commande'
'collaborat'
'codi'
'coastal_'
'closest_'
'clon'
'clo'
'clip'
'cler'
'class'
'clarify_'
'ckl'
'cker'
'cke'
'citizenship_'
'cit'
'ciones_'
'cin'
'cial_'
'cia'
'chung_'
'cht'
'chose_'
'choosing_'
'chi_'
'chee'
'checks_'
'cheaper_'
'charit'
'characters_'
'characteristic_'
'chances_'
'chaft_'
'cere'
'cepti'
'centrally_'
'centrali'
'ced_'
'cca'
'catalog'
'can'
'cali'
'bull'
'buch'
'boy_'
'boundaries_'
'bot'
'borrowing_'
'bon_'
'bold_'
'boasts_'
'boards_'
'blow'
'blog_'
'bles_'
'blame_'
'birds_'
'biodiversity_'
'bin'
'bilateralen_'
'bha'
'bewegung_'
'bew'
'beunruhigend'
'beträchtliche'
'betriebe_'
'betrieb'
'beteiligen_'
'bern_'
'berichtet_'
'bereiche_'
'bem'
'bele'
'beite'
'beit'
'behörden_'
'behindert_'
'begleitet_'
'befürchten_'
'befriedigen_'
'befindliche'
'bedürf'
'bedienen_'
'bedanken_'
'beantwortet_'
'baut_'
'bath'
'basket'
'balances_'
'ax_'
'außen'
'auszusch'
'auszur'
'ausste'
'ausreichen_'
'ausr'
'ausgelöst_'
'ausgeh'
'aufweist_'
'auftr'
'aufst'
'aufrechterhalten_'
'aufn'
'auffordern_'
'auff'
'aufen_'
'attending_'
'attached_'
'atr'
'atis'
'assuming_'
'assu'
'assigned_'
'aspirations_'
'arts_'
'arises_'
'ari'
'arena_'
'arche'
'appl'
'ao'
'anw'
'antiqu'
'annex'
'anlage_'
'anhaltende_'
'anh'
'angry_'
'anges'
'angeme'
'angeh'
'angeb'
'anerkennen_'
'anci'
'amb'
'amazing_'
'alls'
'alität_'
'alisierung_'
'alg'
'alarming_'
'ahm'
'agte'
'agi'
'agent_'
'age'
'advice_'
'adapted_'
'ada_'
'activists_'
'ace_'
'accommodate_'
'accidents_'
'accident_'
'abst'
'abl'
'abi'
'abgeb'
'abe'
'abandoning_'
'aan'
'Zwi'
'Zunahme_'
'Zeitplan_'
'Zeichen'
'Zauber'
'Yugoslavia_'
'Youth_'
'Ye'
'Xi'
'Wür'
'Wälder_'
'Wirtschaftsp'
'Widerspruch_'
'Wider'
'Wette'
'Wettbewerbs_'
'Wert'
'Werbe'
'Wein_'
'Warcraft_'
'WO'
'WA'
'Vorgehensweise_'
'Vorbild_'
'Volksgesundheit_'
'Vladimir_'
'Vista_'
'Vet'
'Veröffentlichung_'
'Versicherungs'
'Verordnungen_'
'Vermögen_'
'Verm'
'Verkehrsmittel_'
'Verk'
'Verh'
'Veranstaltungen_'
'VP_'
'Urteil_'
'Ursprung_'
'Unterhaltungs'
'Unrecht_'
'Unm'
'Unbe'
'Una'
'Umge'
'Ukrainian_'
'UT'
'UE'
'UB'
'Tour'
'Tot'
'Til'
'Through_'
'Theater_'
'Terror'
'Tel_'
'Tax'
'Tan'
'TU'
'TPP_'
'Süd_'
'Sü'
'Systemen_'
'Swa'
'Summen_'
'Sul'
'Strom_'
'Stock_'
'Sto'
'Still_'
'Steuer_'
'Ster'
'Statistik_'
'Starfleet_'
'Stammes'
'Spur'
'Spri'
'Speisen_'
'Spare'
'Spani'
'Sozialisten_'
'Sonne_'
'Solutions_'
'Solar'
'Soft'
'Socialist_'
'Ska'
'Sk'
'Sit'
'Show'
'Shia_'
'Several_'
'Ser'
'Select_'
'Scott_'
'Sco'
'Schö'
'Schwellenländern_'
'Schweiz_'
'Schwarz'
'Schulz_'
'Schu'
'Scho'
'Schlussfolgerung_'
'Schlu'
'Schlafzimmer_'
'Schengen_'
'Sai'
'Saharan_'
'Sachen_'
'ST'
'SH'
'SER'
'Russen_'
'Russ'
'Run'
'Rule_'
'Rot'
'Rhein'
'Rezept'
'Revision_'
'Reservierung_'
'Rental_'
'Rena'
'Regi'
'Rede'
'Reali'
'Ratspräsident_'
'Rap'
'Rande_'
'Railway_'
'RS_'
'RG'
'Quadra'
'Prozesse_'
'Provinz_'
'Prov'
'Propaganda_'
'Projekts_'
'Prognosen_'
'Produktivitäts'
'Privatisierung_'
'Pres'
'Praktiken_'
'Pot'
'Posten_'
'Port_'
'Political_'
'Play'
'Pilot'
'Philip'
'Pflicht_'
'Pfa'
'Petersburg_'
'Pel'
'Patt'
'Patent'
'Parti'
'Partei'
'Part'
'Parlaments'
'Parameter_'
'Papier'
'Pakt_'
'Pakistans_'
'Pack_'
'Paar_'
'PR'
'PM'
'Over'
'Orl'
'Opti'
'Oppositions'
'Operation_'
'On'
'OP'
'OD'
'OC'
'Nixon_'
'Nikon_'
'Nic'
'New'
'Never_'
'Netanyahu_'
'Nelson_'
'Near_'
'Nationalen_'
'Nar'
'Nahrungsmittel'
'NP'
'NICHT_'
'München_'
'Mängel_'
'Mut_'
'Mut'
'Multi_'
'Mugabe_'
'Mozilla_'
'Mot'
'Modus_'
'Modelle_'
'Mode_'
'Mitarbeitern_'
'Mir'
'Mini_'
'Militär_'
'Mid'
'Metro'
'Messen'
'Merkmale_'
'Mengen_'
'Maßstab_'
'Mazedonien_'
'Max'
'Marx_'
'Main'
'Mach'
'MH'
'MAR'
'MAN'
'Löhne_'
'Länge_'
'Luxus_'
'Log'
'Libyen_'
'Lesung_'
'Leone_'
'Leo'
'Leicht'
'Legal_'
'Lee_'
'Laun'
'Lam'
'Lah'
'Labor_'
'Ky'
'Kuwait_'
'Kräften_'
'Kreditkarte_'
'Kop'
'Kontext_'
'Konsumenten_'
'Konferenz'
'Kommissionspräsident_'
'Kommissions'
'Kollege_'
'Klassen'
'Key_'
'Kenya_'
'Kenn'
'Kel'
'Katastrophen_'
'Katalog_'
'Karriere_'
'Karls'
'Kanada_'
'Kaffee'
'Kab'
'KON'
'Jugendlichen_'
'Juan_'
'Jos'
'Jordanien_'
'Jewish_'
'Jas'
'Jan_'
'Isa'
'Is'
'Irak'
'Interventionen_'
'Internetzugang_'
'Intera'
'Installer_'
'Immo'
'Images_'
'Il_'
'Ideal'
'Ibiza_'
'IDE'
'Hu_'
'Hot'
'Host'
'Holland_'
'Holl'
'Him'
'Herrsch'
'Heizung_'
'Hauptver'
'Hat'
'Hass_'
'Hart'
'Harmonisierung_'
'Harbour_'
'Halbinsel_'
'Haben_'
'HS'
'Güter'
'Gäste'
'Grundlagen_'
'Griff_'
'Graf'
'Grad'
'Gleichstellung_'
'Gla'
'Gil'
'Gewinner_'
'Gesundheitswesen_'
'Gestaltung_'
'Gesetzes'
'Geräte'
'Gerichten_'
'Gepäckraum_'
'Geneva_'
'Gem'
'Gegenstände_'
'Gefängnis_'
'Gefangenen_'
'Gay_'
'Gau'
'Garantien_'
'G8_'
'Fünf'
'Fä'
'Friday_'
'Fri'
'Freund'
'Fox_'
'Fluss_'
'Florence_'
'Fl'
'Five_'
'Finnland_'
'Finanzdienstleistungen_'
'File_'
'Festplatte_'
'Fertig'
'Feinde_'
'Farb'
'Fall'
'Extra'
'Expert'
'Exp'
'Everything_'
'Evans_'
'Esta'
'Esc'
'Ero'
'Erg'
'Erfolgs'
'Erdoğan_'
'Entwicklungsp'
'Enth'
'End_'
'Elevator_'
'Einzig'
'Einwohnern_'
'Einigkeit_'
'Eigent'
'Ef'
'Dy'
'Dusche_'
'Durchbruch_'
'Dru'
'Drogen_'
'Drogen'
'Donnerstag_'
'Dona'
'Dom'
'Dokument'
'Display_'
'Disp'
'Dingen_'
'Differenzen_'
'Deutsch_'
'Desktop_'
'Der'
'Dep'
'Demokratischen_'
'Dem'
'Deep_'
'Dea'
'Danach_'
'DAT'
'Cur'
'Cri'
'Crespo_'
'Create_'
'Court'
'Countries_'
'Cost'
'Corp'
'Consequently_'
'Congo_'
'Computer'
'Compa'
'Christine_'
'Chicago_'
'Chaos_'
'Chancengleichheit_'
'Chancellor_'
'Cau'
'Carr'
'Cardassian'
'Capital_'
'Cala_'
'Cai'
'COM_'
'CEO_'
'Bushs_'
'Brun'
'Boris_'
'Borg_'
'Bord_'
'Blue'
'Bis'
'Bezeichnung_'
'Betrug_'
'Betreiber'
'Beteiligten_'
'Besteuerung_'
'Besonders_'
'Besatzungs'
'Bernanke_'
'Berlusconi_'
'Berliner_'
'Bele'
'Bek'
'Bein'
'Bei'
'Beförderung_'
'Befugnisse_'
'Bee'
'Bedauerlicherweise_'
'Bay'
'Bara'
'Balkon_'
'BU'
'Außen_'
'Ausweg_'
'Ausrichtung_'
'Ausarbeitung_'
'August'
'Augenblick_'
'Augen'
'Aufenthalts'
'Asiens_'
'Asi'
'Argument'
'Architekt'
'Arc'
'Arbeitszeit'
'Arbeitsmarkt'
'Arbeitslosen'
'Arabi'
'Anschl'
'Anreiz_'
'Anne'
'Ann'
'Anleger_'
'Angel'
'Ange'
'Anfragen_'
'Andre'
'Andererseits_'
'Among_'
'Ami'
'Alpen_'
'Allow_'
'Alexander_'
'Against_'
'Act'
'Abschaffung_'
'Abr'
'Able'
'Abfall'
'AVI_'
'AM_'
'AF'
'ACP_'
'== _'
'="_'
': '_'
'88_'
'78'
'69_'
'65'
'53'
'51'
'46_'
'44'
'41'
'360_'
'200'
'1st_'
'1948_'
'1930_'
'176'
'150'
'.&_'
'. )'
'. "_'
', '_'
'!!_'
' »_'
' -'
' * _'
' &_'
'€ _'
'ы'
'но'
'ни'
'й_'
'α_'
'α'
'č'
'ünstige'
'ültig'
'ül'
'überzeugend_'
'übernahm_'
'überg'
'überf'
'ø'
'ökonomi'
'éta'
'én'
'ça_'
'å_'
'å'
'äußerte_'
'ätzliche'
'ältig'
'äl'
'ägyptischen_'
'ár'
'ßte'
'Überwachungs'
'Überraschung_'
'Überl'
'Überf'
'Öko'
'Ära_'
'Ähnlich'
'·'
'®'
'« _'
'  '
'}} '
'zü'
'zweifel'
'zwanzig_'
'zw'
'zuversichtlich_'
'zutr'
'zuse'
'zusch'
'zusammenzuarbeiten_'
'zurückz'
'zunichte_'
'zum'
'zugeh'
'zug_'
'zon_'
'zogen_'
'ziert_'
'ziehung'
'zeitige'
'zeig'
'zeichne'
'zauber'
'zahlung_'
'yw'
'yu'
'yo_'
'yellow_'
'yed_'
'yan'
'yacht'
'xy'
'xe_'
'würdigen_'
'wre'
'wr'
'word'
'wm'
'wise_'
'wirkungen_'
'wines_'
'wild_'
'westlich_'
'wenigstens_'
'wellness_'
'welcomed_'
'wel'
'weiß'
'weiterge'
'weise'
'weiche'
'weakness_'
'wd'
'warme'
'ware'
'walk'
'wahre_'
'wag'
'wachstum_'
'wach'
'vorzus'
'vorschlag_'
'vornehmen_'
'vorn'
'vorhandenen_'
'volks'
'visitor_'
'visa_'
'violations_'
'view'
'viel'
'vie'
'vice_'
'vic'
'vi_'
'verweisen_'
'verwaltung_'
'veru'
'verträg'
'vertreter_'
'vertrauen_'
'vertrag'
'versuchte_'
'versteht_'
'versp'
'versetzen_'
'verschwinden_'
'vers'
'vernünftige'
'verlust'
'verla'
'verifi'
'verheerende_'
'verhandeln_'
'vergeben_'
'vereint_'
'verantwort'
'variations_'
'vacation_'
'uu'
'uts_'
'utiliz'
'usses_'
'usage_'
'ursprüngliche_'
'urlaub_'
'uranium_'
'ups_'
'upl'
'upcoming_'
'unüber'
'unweit_'
'unterwegs_'
'unterg'
'unterbreitet_'
'unterb'
'unsu'
'unse'
'uno'
'unl'
'unkon'
'units_'
'unilateral_'
'unification_'
'ungerecht'
'ungen'
'unfa'
'undurch'
'understandable_'
'undermined_'
'uncon'
'unclear_'
'unb'
'unanimously_'
'ume'
'ulation'
'ui'
'ugu'
'uern_'
'uct'
'ucht_'
'uchs'
'tödliche'
'turn'
'turmoil_'
'turbulent'
'tto'
'tsunami_'
'truck_'
'tril'
'trend'
'treat'
'transmission_'
'trans'
'traf_'
'tow'
'tou'
'tolle'
'tok'
'todo'
'tlich_'
'tk'
'tischer_'
'tionally_'
'tiny_'
'timely_'
'till_'
'tili'
'ths_'
'thinks_'
'therapy_'
'ther'
'theoretical_'
'theoreti'
'thal'
'terminal_'
'tensions_'
'tens'
'tene'
'tend'
'tempt'
'telecommunications_'
'tee'
'techno'
'technische'
'technik_'
'teacher_'
'tasty_'
'tanz'
'tain'
'sätze_'
'sze'
'symbolic_'
'sym'
'switch'
'survey_'
'supranational_'
'suppress'
'suppliers_'
'sung'
'sul'
'suit_'
'suggestion_'
'substitute'
'subsid'
'subscribe'
'stützen_'
'stärksten_'
'stände_'
'strukturen_'
'struggling_'
'strongest_'
'strom_'
'strip'
'string'
'strecke'
'strange_'
'straightforward_'
'strafrechtlich'
'stoffen_'
'stitut'
'stischen_'
'sting_'
'stiegen_'
'sters_'
'stays_'
'stat'
'startet_'
'starten_'
'stammt_'
'stabil'
'ssen'
'spra'
'spielte_'
'sphere_'
'sper'
'specify_'
'speaks_'
'spart'
'sp'
'sorte'
'sogenannten_'
'slow'
'slave'
'skri'
'sinn'
'sin_'
'sichtbar_'
'shifts_'
'shelter'
'shar'
'shame'
'sex_'
'sex'
'sevent'
'settlements_'
'settle'
'semi_'
'seitdem_'
'sehe'
'seh'
'securities_'
'secondly_'
'schwer'
'schwedischen_'
'schung_'
'schritt'
'schnellere'
'schli'
'schicken_'
'scheitern_'
'sche'
'schauen_'
'schalte'
'schafft_'
'satisf'
'san_'
'salt_'
'sala'
'sagten_'
'safely_'
'safe'
'räume_'
'räfte'
'rze'
'rw'
'rve'
'rund'
'ruin'
'rui'
'ruhe_'
'rter_'
'rst'
'rseits_'
'roof_'
'ron'
'rochen_'
'rne'
'rist'
'rior'
'rio'
'rine'
'rim'
'rige_'
'richtet_'
'richte'
'ric'
'rez'
'revealed_'
'retten_'
'retr'
'retire'
'reti'
'ression'
'resse'
'responding_'
'resolving_'
'resiste'
'residents_'
'residen'
'reserv'
'requests_'
'reproduc'
'rep'
'renovated_'
'rem_'
'reliability_'
'reicher_'
'rei_'
'regul'
'regier'
'regelungen_'
'refuge_'
'redu'
'recip'
'rech'
'realised_'
'reader_'
'raus'
'ration_'
'ratified_'
'rap'
'ranks_'
'rang'
'raft_'
'radical'
'radiation_'
'ract'
'quest_'
'quellen_'
'qualit'
'qualify_'
'py_'
'purely_'
'purchasing_'
'pse'
'pruden'
'proven_'
'proto'
'protest_'
'promot'
'prom'
'prohibited_'
'profit'
'probe_'
'privatization_'
'privatis'
'prisons_'
'presentation_'
'premium_'
'prejudice_'
'preferred_'
'preference_'
'prefer'
'predictable_'
'precious_'
'precarious_'
'ppt'
'ppo'
'possession_'
'positiven_'
'popularity_'
'poorer_'
'pole'
'plötzliche'
'plug_'
'platforms_'
'pipeline_'
'pipe'
'pilot_'
'pil'
'pielen_'
'pflanz'
'pfer'
'pf_'
'pf'
'pet_'
'periphery_'
'penalty_'
'pel'
'pei'
'ped'
'pause_'
'patient_'
'paths_'
'past'
'pas_'
'partitions_'
'participa'
'partei'
'panels_'
'panel_'
'pane'
'palace_'
'overw'
'overt'
'overseas_'
'outs'
'outline_'
'outlets_'
'oti'
'osc'
'osa'
'oro'
'orm_'
'orm'
'ordnete'
'opposing_'
'opoulo'
'operator_'
'ope'
'ood_'
'onis'
'ong'
'onds_'
'olt'
'oid'
'oi_'
'ohn'
'ohl_'
'offene'
'ody_'
'ode_'
'od'
'obsess'
'obs'
'obi'
'oba'
'nützliche_'
'nördlichen_'
'ny'
'nswerte'
'nste'
'nou'
'nominal_'
'nnt_'
'nna_'
'nj'
'nity_'
'nister'
'nir'
'nightlife_'
'niedrigere'
'niederländischen_'
'nh'
'ngl'
'nfalls_'
'newe'
'neuesten_'
'nent_'
'nel'
'negotiated_'
'nee'
'necessity_'
'neben'
'ndt'
'ndr'
'ndes_'
'nav'
'nau'
'natürliche_'
'nativ'
'national'
'nate'
'nada_'
'mündlichen_'
'möge_'
'myth'
'multip'
'multilateralen_'
'mpli'
'mpe'
'movies_'
'mov'
'mouth_'
'mood_'
'momentum_'
'modules_'
'modes_'
'modernisier'
'mobili'
'mme_'
'mitzu'
'mittlere'
'mitglieder_'
'mistakes_'
'mir'
'ming'
'militärischer_'
'militia'
'milde'
'meti'
'mern_'
'merge'
'menschen'
'meister'
'medizinische_'
'md'
'maßen_'
'mature_'
'master_'
'massa'
'maschine_'
'mals_'
'male'
'magazine_'
'macro_'
'mac'
'lying_'
'lusion'
'lus'
'lth'
'lossen'
'losigkeit_'
'loser_'
'logo_'
'logisti'
'locked_'
'locke'
'lla_'
'lj'
'lively_'
'liv'
'lität'
'link'
'liner_'
'limiting_'
'lift_'
'liederung_'
'lieben_'
'lian'
'lge'
'lex'
'lette_'
'lengthy_'
'lend_'
'lend'
'lei'
'lear'
'lb_'
'late'
'laste'
'lass'
'las'
'lant'
'langsamer'
'landing_'
'kümmern_'
'kü'
'kä'
'kund'
'kun'
'kultur_'
'ktr'
'ktive'
'kte_'
'kritische_'
'kritisch'
'kreis'
'kratisch'
'kraft'
'kov_'
'kopieren_'
'kontrolliert_'
'kontrollen_'
'konk'
'konflikt'
'konf'
'komplette_'
'komplette'
'komfortablen_'
'komfortable_'
'kombiniert_'
'kollektive'
'klären_'
'kleines_'
'klassischen_'
'klarer_'
'kka'
'kit_'
'keys_'
'keen_'
'jüdischen_'
'junta_'
'judges_'
'journal'
'jetzigen_'
'jas'
'izer'
'iza'
'itt'
'issa'
'iss'
'isolated_'
'isa'
'irr'
'ironi'
'irgend'
'ires_'
'iranische_'
'iona'
'inz'
'invi'
'intervene_'
'internationales_'
'interfere'
'interessant_'
'interd'
'inter_'
'intensiven_'
'integrierte_'
'integrati'
'integral'
'inta'
'insur'
'institute_'
'installer_'
'installations_'
'inspired_'
'ino'
'inner_'
'inmitten_'
'inis'
'ini_'
'inhalt'
'inflict'
'industriellen_'
'industri'
'induce'
'ind_'
'incur'
'incredibly_'
'inb'
'inad'
'imi'
'imate'
'ilen_'
'ih'
'igungs'
'igen'
'iga'
'ift'
'ifft_'
'ierter_'
'ient_'
'ient'
'ieg_'
'iefer'
'ieb_'
'idig'
'ident'
'icklung_'
'ibt_'
'iat'
'iPod_'
'höchst_'
'hôtel_'
'hängig'
'hängen_'
'hypothe'
'hybrid_'
'hunger_'
'hundert_'
'hub'
'hren'
'hou'
'hot'
'hos'
'horn'
'hom'
'hohes_'
'hochwertige_'
'hma'
'hlen_'
'hl'
'hir'
'hinzugefügt_'
'hinweg_'
'hinnehmen_'
'hinge'
'hike'
'high'
'herstellen_'
'hers_'
'heroi'
'herb'
'hera'
'heal'
'haushalt'
'harsh_'
'harm'
'hard'
'handled_'
'hamper'
'halben_'
'halb_'
'hafte'
'haf'
'gun'
'gua'
'größtenteils_'
'grundlegende'
'gru'
'grouping'
'grosse_'
'graph'
'graf'
'graduate'
'gradual_'
'grad'
'grab'
'god'
'gliche'
'gische_'
'gien'
'gewährt_'
'gewä'
'gewalt'
'gewachsen_'
'getr'
'geteilten_'
'get'
'gesunken_'
'gesto'
'gesellschaftliche_'
'geschr'
'geschlossene'
'geschicht'
'geräte_'
'gerechten_'
'generier'
'genauer_'
'gemessen_'
'gema'
'gelegentlich_'
'geko'
'geist'
'gehei'
'geg'
'geführten_'
'gefe'
'geeigneten_'
'geeignete_'
'gather_'
'gastro'
'garage_'
'fürchte'
'fünf'
'fü'
'fut'
'funktion_'
'fungier'
'fueled_'
'früh_'
'freige'
'frame_'
'fragte'
'founder_'
'foster_'
'fortge'
'formuliert_'
'formelle'
'forme'
'forecast_'
'forder'
'fon'
'fläche_'
'flow'
'flaw'
'flags_'
'fits_'
'finanziell_'
'fin'
'fifth_'
'fie'
'festzulegen_'
'festlegen_'
'fertig'
'featured_'
'favour'
'fault_'
'fashion'
'fas'
'fal'
'fait'
'faire_'
'exposure_'
'expo'
'experimental_'
'expenses_'
'expect'
'expe'
'expan'
'exhibition_'
'executed_'
'execut'
'exceptions_'
'exceeds_'
'exceed'
'everyday_'
'eve'
'eut'
'europäisches_'
'eur'
'etzung_'
'eth'
'etablieren_'
'este_'
'erv'
'errors_'
'errichten_'
'ernsthaften_'
'erneuer'
'ermöglichte_'
'erin'
'erhielten_'
'ergänzen_'
'erfu'
'erfreu'
'erfasst_'
'erbaut_'
'enve'
'ently_'
'entitlement'
'entfernen_'
'entertain'
'entdeckte'
'entails_'
'enp'
'enjoying_'
'engi'
'endi'
'endes_'
'encompass'
'empty_'
'employers_'
'emphasis'
'emitt'
'emergence_'
'ement'
'embedded_'
'embark'
'ella_'
'eliminating_'
'eligible_'
'einzig'
'eins'
'einricht'
'eingest'
'eingeschränkt_'
'eingeb'
'eind'
'ehe'
'egi'
'egal_'
'effi'
'edly_'
'editorial_'
'ede'
'ect'
'economist_'
'ecken_'
'ebr'
'eben'
'durchgeführten_'
'duration_'
'dur'
'dunkle'
'droht_'
'dringlich'
'drew_'
'dramatisch_'
'drafted_'
'doubts_'
'dorthin_'
'dore'
'donor_'
'donat'
'dom'
'dne'
'dn'
'dle_'
'divisions_'
'diversi'
'diversen_'
'districts_'
'dist'
'discharge_'
'direkt'
'dioxide_'
'dimensional'
'dim'
'digt'
'differ_'
'dienst_'
'dich_'
'diagnose'
'diag'
'dia_'
'dha'
'dez'
'devoted_'
'devi'
'deutscher_'
'deutsch'
'deutliche_'
'deuten_'
'deterren'
'dete'
'det'
'destabilizing_'
'desired_'
'deserve_'
'ders'
'derjenigen_'
'derived_'
'deprived_'
'dependen'
'departments_'
'depart'
'demographic_'
'delle_'
'degradation_'
'deflation_'
'deco'
'dauern_'
'dauerhafte_'
'dasselbe_'
'dangers_'
'dan_'
'dag'
'cyclical_'
'cyber_'
'count'
'coun'
'correspond_'
'correction'
'cord'
'coole'
'cook'
'converted_'
'convert'
'conversation_'
'conv'
'controversial_'
'constructed_'
'constrain'
'consolidation_'
'cono'
'confront'
'conform'
'conf_'
'compulsory_'
'comprises_'
'complexity_'
'complement'
'competitors_'
'compensate'
'compatibility_'
'communicate_'
'commission'
'collected_'
'coherence_'
'clothing_'
'clinical_'
'clicking_'
'classifi'
'classical_'
'clarification_'
'civilians_'
'cit_'
'circum'
'cian'
'chts'
'chtig'
'chri'
'chme'
'chl'
'chkeiten_'
'ching_'
'child'
'cherung_'
'ched_'
'checke'
'cheat'
'champions'
'challenging_'
'chairman_'
'chair_'
'certainty_'
'cease'
'casino_'
'care'
'capacities_'
'cap'
'cano'
'cancelled_'
'cam'
'bust'
'bury_'
'buck'
'brother_'
'brit'
'breaking_'
'brand'
'branche_'
'bour'
'booked_'
'boo'
'bombs_'
'bomb'
'bolster'
'boa'
'bnis'
'bloß_'
'bli'
'blase_'
'bit'
'bis'
'bind'
'bilanz'
'bien_'
'bewert'
'besuchte_'
'bestände_'
'beschrieben_'
'beschloss'
'beschleunigt_'
'bes'
'beru'
'berge'
'bereichen_'
'bera'
'benutzer'
'benannt'
'benachrichtigt_'
'benachbarten_'
'bemerkt_'
'bemerk'
'beliebige'
'belegt_'
'belaufen_'
'belast'
'bekenn'
'beiträgt_'
'beinhalten_'
'beginne'
'begeben_'
'bege'
'begab_'
'befasst_'
'bedeutsame'
'beat'
'bearing_'
'beanspruch'
'battery_'
'batt'
'barr'
'barely_'
'bailout_'
'bahn'
'bab'
'az_'
'avoid'
'ava'
'autonom'
'automatic_'
'authorise'
'aut'
'auswärtige_'
'ausreicht_'
'ausgenutzt_'
'ausgegeben_'
'ausgedrückt_'
'ausgedehnt'
'auseinander_'
'aum_'
'aufgew'
'aufgestellt_'
'aufgeb'
'audit'
'atz'
'attribute'
'attraction_'
'attend_'
'atl'
'atic_'
'assurance_'
'asserti'
'asse_'
'aru'
'arsenal'
'arrive_'
'aro_'
'argu'
'archi'
'appro'
'appreciation_'
'appreciated_'
'appoint'
'apologi'
'ap'
'anzugehen_'
'antrag'
'anticipated_'
'anspruchsvolle'
'anschließen_'
'annimmt_'
'angs_'
'angewandt_'
'angetrieben_'
'angest'
'anger_'
'angepasst_'
'angelegt_'
'angefangen_'
'ando'
'ander'
'andel_'
'ande'
'anbelangt_'
'analyze'
'analyst'
'ament'
'amended_'
'ambitions_'
'allzu_'
'allgemeinem_'
'alleg'
'alla'
'alized_'
'ality_'
'aligned_'
'align'
'aler_'
'albeit_'
'ala_'
'aket'
'airline_'
'ahmen_'
'agne'
'aggre'
'ager'
'agend'
'afraid_'
'affen_'
'advent'
'ads_'
'adre'
'administrati'
'adidas_'
'addresses_'
'actively_'
'activ'
'aco'
'accus'
'accomplish'
'accelerate_'
'academi'
'abzulehnen_'
'abhängen_'
'abgestimmt_'
'abgehalten_'
'abg'
'abandon_'
'aa'
']] | _'
'Zweig'
'Zustellbetten_'
'Zust'
'Zuge'
'Zuerst_'
'Zimmerbeschreibung_'
'Zh'
'Zertifikat'
'Zeitungen_'
'Zahlungen_'
'Zah'
'Young_'
'You'
'Yan'
'Ya'
'Xin'
'XML_'
'Wu'
'Would_'
'Wort'
'Wind'
'Wiederbelebung_'
'Wichtigkeit_'
'Wesen_'
'Werden_'
'Wende'
'Wellness'
'Weiteren_'
'Wed'
'Warnung_'
'WAR'
'Völkern_'
'Vu'
'Voyager_'
'Vorstands'
'Volksabstimmung'
'Volcker_'
'Vogel'
'Vita'
'Vin'
'Vil'
'Vid'
'Vertretung_'
'Vertrages_'
'Vert'
'Versorgungs'
'Versi'
'Versand'
'Versammlung_'
'Versa'
'Vergnügen_'
'Verfassungsvertrag'
'Vereinfachung_'
'Verbr'
'Ven'
'Van'
'Unterzeichnung_'
'Unterscheidung_'
'Unsere'
'Unruhen_'
'Unless_'
'Umfragen_'
'Umb'
'Tyr'
'Turb'
'Tuni'
'Tsi'
'Treasury_'
'Transit'
'Transfer'
'Tragödie_'
'Tradi'
'Tower_'
'Touristen_'
'Tools_'
'Tisch_'
'Tickets_'
'Tibet'
'Thro'
'Think'
'Ther'
'Theorie_'
'Textil'
'Terroran'
'Tempora'
'Temperaturen_'
'Temp'
'Tap'
'Tao'
'Tag'
'Tabelle_'
'TC'
'Syri'
'Swoboda_'
'Swi'
'Suiten_'
'Subject_'
'Stärken_'
'Studium_'
'Stud'
'Strei'
'Storage_'
'Stockholm_'
'Steuerung_'
'Sternen'
'Step'
'Stau'
'Station'
'Standpunkte'
'Stamm'
'Staatsschulden_'
'Spre'
'Spitzen'
'Spezie'
'Speci'
'Space_'
'Source_'
'Solarium_'
'Sof'
'Society_'
'Socialists_'
'Soci'
'Slo'
'Six_'
'Sisko_'
'Single_'
'Simbabwe_'
'Siege'
'Sicherheitss'
'Sicherheitsbe'
'Shops_'
'Sharon_'
'Server'
'Series_'
'Sensor'
'Sekunde_'
'Schöne'
'Schuld_'
'Schröder_'
'Schrift'
'Schmerz'
'Schluss'
'Schli'
'Schlaf'
'Schiffs'
'Scar'
'Saudis_'
'Saturday_'
'SanDisk_'
'Sammlung_'
'Salzburg_'
'Sachs_'
'SR'
'SCH'
'Rock'
'Richter_'
'Rica_'
'Res'
'Repo'
'Renn'
'Rel'
'Reisende'
'Reinigung_'
'Reich_'
'Regions_'
'Reduzierung_'
'Reduc'
'Redner_'
'Rebellen_'
'Ratifizierung_'
'Rat'
'Rand'
'Rahmens_'
'Raf'
'RU'
'ROM_'
'Quick'
'Quest'
'Pä'
'Putins_'
'Pun'
'Proteste_'
'Protest'
'Protection_'
'Pros'
'Prophet'
'Programmen_'
'Profit'
'Profil'
'Process_'
'Prob'
'Prize_'
'Power'
'Pou'
'Por'
'Poor_'
'Polizei'
'Plu'
'Platz'
'Pir'
'Pie'
'Picard_'
'Philippines_'
'Phil'
'Pharma'
'Pent'
'Peer_'
'Patch'
'Partnern_'
'Parliamentary_'
'Papa'
'Panel_'
'Palacio_'
'PXI_'
'PDF_'
'Ozean'
'Oste'
'Orts'
'Orte_'
'Original_'
'Organis'
'Organ'
'Ordner_'
'Opfern_'
'Ombudsman_'
'Olympus_'
'Offen'
'Oberha'
'OPEC_'
'OG'
'ODER_'
'Nutz'
'Nue'
'Nuclear_'
'Nob'
'Niedergang_'
'Neue_'
'Nazis'
'Namibia_'
'Nahrungsmittel_'
'Nag'
'Nachh'
'NT_'
'NF'
'Mär'
'Muss'
'Music_'
'Musharraf_'
'Mund'
'Much_'
'Motto_'
'Monday_'
'Modul_'
'Modernisierung_'
'Mittela'
'Mittag'
'Mitgliedsländer_'
'Mitentscheidung'
'Mitbe'
'Mischung_'
'Minister'
'Milliarde_'
'Migranten_'
'Miet'
'Michel_'
'Michel'
'Meth'
'Messe_'
'Menschenrechtsverletzungen_'
'Menschenrechten_'
'Mem'
'McKinsey_'
'Maus'
'Materialien_'
'Marke_'
'Map'
'Mand'
'ME_'
'MED'
'MDGs_'
'MD'
'Luxembourg_'
'Lula_'
'Love'
'Louis_'
'Lot'
'Lobby_'
'Lizenz'
'Liu_'
'Lite'
'Linien_'
'Leiter_'
'Leid_'
'Lehman_'
'Legi'
'Lea'
'Lau'
'Large_'
'Language_'
'Landschaft_'
'Lama_'
'Lager'
'Lag'
'LA_'
'Kün'
'Kraftstoff'
'Komplex'
'Kohlendioxid'
'Know_'
'Kirchen'
'Ki_'
'Kho'
'Kein_'
'Kampa'
'Kambodscha_'
'Kabel_'
'Jörg_'
'Jesus_'
'Jam'
'Jak'
'Jac'
'JA'
'Irr'
'Ion'
'Intergovernmental_'
'Intel_'
'Inte'
'Installations'
'Innovations'
'Inlands'
'Infektion'
'Individual'
'Indi'
'Importe'
'IN_'
'ICEcat_'
'IA_'
'Höhepunkt_'
'Händen_'
'Hyatt_'
'Horizont'
'Hohen_'
'Hinzu'
'Hinweise_'
'Hinter'
'Hierzu_'
'Hier'
'Herzego'
'Herbst_'
'Hen'
'Heads_'
'Hannover_'
'Ham'
'Haiti_'
'Gö'
'Gul_'
'Gui'
'Grünen_'
'Größen'
'Grundsätze_'
'Große_'
'Greens_'
'Gran'
'Gouverneur'
'Golf'
'Gle'
'Gewässer'
'Gesundheitsp'
'Gesamte'
'Gerät_'
'Georgien_'
'Genehmigung_'
'Gemä'
'Gemeinschaftsp'
'Gelegenheiten_'
'Gele'
'Geis'
'Gegenzug_'
'Gegenwärtig_'
'Gegenden_'
'Geburt'
'Gazastreifen_'
'Gaz'
'Gas'
'Gard'
'Gall'
'GEN'
'Fürs'
'Führungsp'
'Führungs'
'Fußball'
'Funktionieren_'
'Fukushima_'
'Fuji'
'Früchte_'
'Freilassung_'
'Freihandels'
'Fore'
'Flughafen'
'Flor'
'Fleisch'
'Fische'
'Finanzk'
'Finanzin'
'Filter'
'Fehler'
'Feed'
'Fee'
'Fast_'
'Fantas'
'Fahrer_'
'FL'
'FARC_'
'Extremisten_'
'Europarat'
'Ethiopia_'
'Estonia_'
'Esp'
'Erwerb_'
'Erst_'
'Erst'
'Ersch'
'Erinnerung_'
'Er'
'Entwicklungsa'
'Entw'
'Entschuld'
'Entlastung_'
'Ens'
'Enk'
'Englisch_'
'Energieeffizienz_'
'Energiea'
'Empfänger_'
'Element'
'Elektro'
'Electronic'
'Einzelnen_'
'Einsp'
'Einschränkung_'
'Einsatz'
'Eing'
'Einfluss'
'Einb'
'Economy_'
'Eb'
'EX'
'EWG_'
'EV'
'ENT_'
'ECH'
'Dé'
'Dur'
'Dritten_'
'Dresden_'
'Dream'
'Down'
'Double_'
'Domin'
'Disziplin_'
'Disc'
'Disabled_'
'Diplomatie_'
'Digi'
'Dick'
'Di_'
'Dest'
'Deposit_'
'Defense_'
'Def'
'Deba'
'Deal_'
'Dau'
'DEN'
'DD'
'Cross_'
'Crew_'
'Corb'
'Const'
'Computers'
'Commo'
'Commander_'
'Colon'
'Clau'
'Citizens_'
'Cin'
'Christ'
'Child_'
'Chef_'
'Chechnya_'
'Charl'
'Chan'
'Celsius_'
'Castro_'
'Cast'
'Cash'
'Carl_'
'Car_'
'CL'
'CDs_'
'CC_'
'CB'
'Büro_'
'Bürgerkrieg_'
'Bundestag_'
'Bull'
'Buchung_'
'Browser_'
'Briten_'
'Boutique_'
'Bour'
'Bonn_'
'Bomben'
'Blut_'
'Bisher_'
'Bin'
'Bill'
'Bilanz_'
'Bier'
'Bie'
'Bewohner_'
'Bevölkerungen_'
'Betriebssystem_'
'Betracht_'
'Bestand'
'Besetzung_'
'Beschäftigten_'
'Beschwerden_'
'Bergen_'
'Bereits_'
'Berechtigung'
'Beratung'
'Bemühen_'
'Belastung_'
'Bekanntlich_'
'Beit'
'Begr'
'Beg'
'Befr'
'Bedien'
'Bear'
'Balk'
'Bach'
'BL'
'Autorität_'
'Automati'
'Ausw'
'Australien_'
'Ausbildungs'
'Ausbeutung_'
'Augenmerk_'
'Aufg'
'Ate'
'Asse'
'Arzneimittel'
'Armenia'
'Archer_'
'Arbeitss'
'Arbeitsplatz'
'Arbeitsgruppe'
'Arafat_'
'App'
'Apart_'
'Anwe'
'Anschläge_'
'Anruf'
'Anpassungs'
'Annan_'
'Annahmen_'
'Anlage'
'Anl'
'Anges'
'Ang'
'Anbindung_'
'Amm'
'Alpe'
'Alli'
'Allah_'
'Airways_'
'Afrikanische'
'Aff'
'Add_'
'Achtung_'
'Acht_'
'Access'
'Abw'
'About_'
'Ablauf_'
'Abend'
'Abbau_'
'A6_'
'=='
'93_'
'89_'
'84_'
'76_'
'76'
'74_'
'74'
'66_'
'47'
'38'
'215'
'201'
'1980s_'
'1962_'
'1950_'
'1930er_'
'184'
'002'
'.) _'
'.&#_'
') ._'
'#_'
' – _'
' – '
' » _'
' = [[_'
' --> _'
'��'
'€'
'“) _'
'х_'
'ра'
'по'
'во'
'ве'
'ι'
'ła'
'üß'
'üste'
'ürdig'
'ünsch'
'üllen_'
'ührt_'
'üche'
'übt_'
'üblichen_'
'überwältigende'
'überschr'
'übern'
'überleben_'
'übergeben_'
'überge'
'überein'
'überarbeitet'
'üb'
'öst'
'ört_'
'örder'
'ór'
'ña'
'êt'
'ère_'
'ärm'
'ärkte_'
'ändler_'
'ändert_'
'änder'
'älte'
'ähig'
'äglich'
'ächt'
'ä_'
'ßig'
'Übersetzungs'
'Überleben_'
'Öffentliche_'
'Äg'
'«'
'}} _'
'{'
'zzi'
'zweifelhaft'
'zwan'
'zuw'
'zuverlässige'
'zuv'
'zutage_'
'zustellen_'
'zurückzukehren_'
'zurückkehren_'
'zurückf'
'zung_'
'zulässig'
'zs'
'zog_'
'ziplin'
'zine'
'zi_'
'zeita'
'zeile'
'zan'
'zahlreicher_'
'yy'
'yl_'
'yl'
'xo'
'xie'
'xes_'
'würdig'
'wäsche_'
'wunderschönen_'
'wunderbare'
'worsen'
'worauf_'
'wol'
'wle'
'witnessing_'
'wit'
'wished_'
'windi'
'willen'
'wiese'
'wiederholte'
'width_'
'wid'
'wi_'
'wheel_'
'whe'
'wesen'
'wertvollen_'
'wertige'
'werks'
'wendet_'
'weißen_'
'wee'
'websites_'
'weakening_'
'warnen_'
'ward_'
'wald_'
'vorsitzende'
'vorliegen_'
'vorher'
'vorgeschlagene_'
'vorauss'
'vora'
'volunteer_'
'volumen_'
'vo_'
'visiting_'
'virtue_'
'ville_'
'vierte'
'vet_'
'veröffentlichte_'
'verzeichnet'
'verz'
'verwendete_'
'verursachten_'
'vertrete'
'versuchten_'
'verstr'
'versicherung'
'verschärfen_'
'verschlimmer'
'verschle'
'verschl'
'verschieben_'
'versamm'
'vermute'
'vermei'
'vermehrt'
'verletzt_'
'verkehrs_'
'verkauft_'
'verheerend'
'verha'
'vergrößert'
'vergleich'
'verga'
'vereinig'
'vereinfacht'
'vereinbarte'
'verein'
'verdräng'
'verdo'
'verda'
'verbrauche'
'verbr'
'verbleibenden_'
'verbindlich_'
'verbesserten_'
'verantwortungs'
'verabschieden_'
'ventur'
'vention'
'veness_'
'vene'
'vegetables_'
'vegeta'
'vast'
'valley_'
'validat'
'vai'
'uß'
'uts'
'utm'
'ution_'
'uste'
'usschuss_'
'uss_'
'usive'
'user'
'usal'
'urop'
'urh'
'ura_'
'upt_'
'ups'
'upp'
'updates_'
'unzureichend'
'unverantwortlich'
'unterw'
'unterschätz'
'unters'
'unterliegt_'
'unta'
'unsustainable_'
'unsa'
'unprecedented_'
'unnötige'
'unmi'
'unm'
'uniti'
'unh'
'ungsw'
'ungsma'
'ungslos_'
'ungsl'
'ungsg'
'ungsan'
'ungleich'
'ungewöhnliche'
'unges'
'unerwünschte'
'undertaking_'
'underscore'
'underpinned_'
'underpin'
'unbest'
'umr'
'umk'
'umfassend_'
'umfang_'
'umf'
'ult_'
'uls'
'ular'
'ugs'
'ugh'
'ugen_'
'uert_'
'uchte'
'uar'
'uali'
'tätigen_'
'tänd'
'typischen_'
'typische_'
'twi'
'tv'
'turb'
'tu_'
'ttent'
'tta'
'tse'
'tschetschenische'
'tsch'
'trug'
'triggered_'
'trigger_'
'tremendous_'
'treatments_'
'treaties_'
'traum'
'trap_'
'transporti'
'tracking_'
'totalit'
'tos_'
'torium_'
'tore'
'topp'
'tisa'
'tioni'
'tion'
'tim'
'tien'
'tiefer_'
'tiate'
'thereafter_'
'theme'
'teurer_'
'teuer_'
'testen_'
'teria'
'tension_'
'tellen_'
'teilung_'
'teh'
'tch_'
'tariffs_'
'tare'
'tankers_'
'tang'
'tand'
'tai'
'tab_'
'südlichen_'
'sy_'
'switched_'
'svors'
'sverfahren_'
'suspension_'
'suspect'
'surviv'
'surprising_'
'supplier_'
'supervisor'
'superb_'
'summ'
'suche_'
'such'
'successor_'
'subway_'
'substanzielle'
'substan'
'subjects_'
'stützt_'
'stö'
'stärkste_'
'stärkeren_'
'ständ'
'stupid_'
'stung_'
'stun'
'stum'
'strukturelle_'
'stro'
'strive_'
'stric'
'streben_'
'strand'
'stran'
'stoppen_'
'stolz_'
'stock'
'stick_'
'steuern_'
'stet_'
'stereo'
'stel'
'steer'
'steckt_'
'stattdessen_'
'standardis'
'stan'
'stak'
'stair'
'stabiler_'
'staate'
'ssung_'
'ssan'
'spä'
'spru'
'spro'
'sprache_'
'sponsor'
'spiele_'
'spekul'
'spark'
'spann'
'sozialistischen_'
'souveräne'
'sorti'
'sonstige_'
'som'
'solved_'
'solide_'
'soft'
'soeben_'
'smokers_'
'slip'
'sleeping_'
'sle'
'sku'
'sko'
'sive'
'situationen_'
'sir'
'simpli'
'simis'
'signat'
'signali'
'sia'
'shutt'
'shut_'
'shrinking_'
'shou'
'shortages_'
'sheets_'
'sgr'
'sfo'
'sexuellen_'
'sexu'
'setzte_'
'settled_'
'sessions_'
'servant'
'sep'
'sentence'
'sends_'
'sely_'
'sele'
'sel_'
'sein'
'sees_'
'secretar'
'secret'
'seas_'
'scrap'
'scr'
'schützt_'
'schä'
'schwierige_'
'schwierig'
'schwarzen_'
'schulden'
'schul'
'schneide'
'schmerzhaft'
'schlimm'
'schließe_'
'schlechtes'
'schle'
'schlag_'
'schenken_'
'schaften_'
'schaft'
'sber'
'saubere'
'satisfaction_'
'santa_'
'sant'
'sample_'
'same'
'sac'
'rüch'
'rät'
'räg'
'rzt_'
'rzi'
'rvat'
'rust'
'rungs'
'ruhiger_'
'ruf'
'rub'
'rtet'
'rted_'
'rste'
'rsi'
'rsch'
'rri'
'rp'
'rota'
'ros_'
'roi'
'robuste'
'robot'
'rnt_'
'rme'
'rm'
'rl'
'rke_'
'risky_'
'riskieren_'
'rin_'
'rigen_'
'ries'
'rieren_'
'riege'
'rid_'
'richtete_'
'rich'
'rib'
'rianis'
'rfer'
'reward_'
'revol'
'revised_'
'reunification_'
'reten_'
'resur'
'resume'
'restructure'
'respektieren_'
'respect'
'resp'
'resid'
'reserven_'
'reservations_'
'repräsent'
'repression_'
'repair_'
'remuneration_'
'remit'
'reme'
'relie'
'relevance_'
'relaxation_'
'relationships_'
'rejection_'
'reiterate_'
'reist'
'reisen_'
'reinforce_'
'reine_'
'reifen_'
'reiche_'
'regierung'
'regi'
'reduces_'
'recover'
'rechtlich_'
'rechtfertigen_'
'recht'
'receiving_'
'ream'
'realities_'
'realis'
'rchi'
'rce'
'rben_'
'rbeit_'
'rauch'
'rans'
'ral'
'raid'
'raft'
'raf'
'rade'
'radar_'
'rach'
'quip'
'ques_'
'quent'
'qualifizierten_'
'pus'
'pursuing_'
'pursued_'
'pure_'
'punish'
'pull'
'publici'
'pter'
'präzise_'
'proze'
'protestier'
'protektionistische'
'protection'
'prostitut'
'pron'
'prolonged_'
'projected_'
'programmen_'
'profi'
'produz'
'prize_'
'privilege_'
'prisoners_'
'prioriti'
'printing_'
'printer_'
'pria'
'preventing_'
'pretend'
'prestigious_'
'pressing_'
'presidents_'
'prediction'
'precede'
'precaution'
'practi'
'pping_'
'potenzielle_'
'pot_'
'port'
'pornograph'
'populär'
'populist_'
'pop'
'poorly_'
'poly'
'polo'
'polari'
'poker_'
'pocket'
'plätze_'
'pläne_'
'plä'
'plo'
'plate_'
'pl'
'pity_'
'pis'
'piracy_'
'pine'
'pillar_'
'pilgrim'
'pier'
'pieces_'
'physi'
'photograph_'
'pfl'
'pfe'
'pes_'
'perspectives_'
'persone'
'pers'
'permission_'
'permanently_'
'peg'
'peacefully_'
'pat'
'passport_'
'passende'
'passen_'
'passage'
'participating_'
'participated_'
'partei_'
'parl'
'park'
'paren'
'papers_'
'panoramic_'
'palästinensische_'
'paket_'
'paint_'
'pain'
'pai'
'pag'
'pad_'
'packen_'
'oß_'
'owi'
'overr'
'overlook_'
'outright_'
'ours_'
'otr'
'ote_'
'osit'
'orts_'
'orn_'
'origins_'
'ories_'
'orientiert_'
'ori_'
'orge_'
'org'
'ordern_'
'ordentlich'
'optimis'
'optical_'
'oph'
'operators_'
'opera_'
'onym'
'onist'
'oni_'
'onf'
'onent'
'omp'
'oly'
'ologischen_'
'olo_'
'oll_'
'oks_'
'ois'
'ogi'
'offs_'
'offensichtliche'
'odu'
'odd'
'ochen_'
'occurring_'
'obscure'
'nö'
'näch'
'nwe'
'null_'
'nuklearen_'
'nuestr'
'nue'
'nswert_'
'nsta'
'nsa'
'novel'
'notion_'
'notification_'
'nomina'
'nissen_'
'nig'
'niederge'
'nid'
'ngte'
'ngt_'
'ngi'
'nger_'
'nga'
'newsletter_'
'neutral_'
'netze_'
'nese_'
'nern_'
'neo_'
'nel_'
'neighborhood'
'nehmer_'
'nehme_'
'nehm'
'nec'
'ndlung'
'ncie'
'nationalistische'
'nas_'
'narr'
'nahezu_'
'nah_'
'nad'
'nachzu'
'nacht'
'nachdenken_'
'mütig'
'mysql'
'musik_'
'music'
'multinational_'
'multilateral'
'mten_'
'mption'
'mpel'
'motivier'
'moreover_'
'mord'
'moo'
'monument'
'monopoly_'
'mond_'
'mon'
'modification_'
'modi'
'modernization_'
'moc'
'mmt_'
'mml'
'mmig'
'mmer_'
'mmen'
'mix'
'mitteilen_'
'mitte'
'mitt'
'mist'
'mission'
'miss_'
'miracle'
'minde'
'mile'
'mie_'
'micro_'
'mher'
'metri'
'method'
'meta'
'met'
'meltdown_'
'meets_'
'measurement_'
'materielle'
'materiali'
'marsch'
'marriage_'
'march'
'marble_'
'mapp'
'manufacturer_'
'manufacture'
'mangelnde_'
'mane'
'mamm'
'malt'
'mall'
'makro'
'mais_'
'mail'
'mai'
'magneti'
'mad'
'mach'
'lüge'
'lösungen_'
'läßt_'
'länger'
'läge_'
'lz'
'lw'
'luxuriöse_'
'lux'
'lud'
'luck'
'ltig_'
'low'
'loop'
'logis'
'loge'
'lock'
'loaded_'
'lli_'
'lled_'
'literally_'
'liness_'
'lik'
'lift'
'lieferte'
'lichsten_'
'licherweise_'
'liche'
'libysche'
'liberalen_'
'liabilities_'
'lg'
'letzte'
'less'
'lent'
'leitet_'
'leite'
'leistungsstarke'
'legung'
'leer'
'lds_'
'lding'
'lave'
'laundry_'
'lauf'
'lati'
'landschaft_'
'lakes_'
'lai'
'label_'
'künft'
'könnt_'
'ky'
'kus'
'kurzfristige_'
'kum'
'kula'
'ktivi'
'kte'
'kräftige'
'kräften_'
'kreuz'
'kot'
'korrigieren_'
'koo'
'konzentrierte'
'kontrollierte'
'kontra'
'kontin'
'kontaktieren_'
'konsum_'
'konkreter_'
'kommunistische_'
'kommerziellen_'
'kom'
'kolle'
'kohlenstoff'
'km²_'
'klingt_'
'kleineren_'
'kk'
'kins_'
'kinder'
'kh'
'kette_'
'kett'
'kenne_'
'keeps_'
'kd'
'kay'
'kate'
'karten_'
'kapitalistische'
'kapital_'
'kal'
'kab'
'jüngst_'
'juristische'
'jung'
'junct'
'judgment_'
'judg'
'jor'
'jeti'
'jegliche'
'ject'
'jan_'
'jad'
'ix'
'ivi'
'ives_'
'itä'
'itis_'
'iting_'
'ith'
'istic_'
'isn_'
'isieren_'
'isches_'
'isation_'
'irregular'
'irm'
'irgendwann_'
'ip_'
'iou'
'investigate_'
'inve'
'invasion_'
'inu'
'interinstitutional_'
'intell'
'integrierten_'
'integrieren_'
'inte'
'insure'
'instructi'
'instances_'
'instabil'
'inspiration_'
'inspectors_'
'inos_'
'innocent_'
'inne_'
'inne'
'init'
'inhab'
'ingt_'
'informati'
'influenced_'
'infection_'
'iner_'
'inefficient_'
'indo'
'individually_'
'indirect_'
'indication_'
'independently_'
'incorporated_'
'incorporate_'
'incl'
'inch_'
'importi'
'imported_'
'implied_'
'impede'
'imo'
'immune_'
'ima_'
'im'
'ilung_'
'illustrate'
'illustr'
'illo'
'ilie'
'iko'
'ignorieren_'
'igli'
'iges_'
'ießen_'
'ierungen_'
'iere'
'ierbare'
'ieb'
'ids'
'ido'
'ider_'
'ideologische_'
'identisch'
'identifizier'
'identical_'
'idealer_'
'ideal'
'icon_'
'ico'
'ick'
'ichtungs'
'ichkeit_'
'icherte'
'ibe'
'ianische'
'iale'
'höh'
'häuser_'
'hw'
'hus'
'hurt_'
'hungr'
'hrte'
'hospitals_'
'homo'
'hofft'
'hly_'
'his'
'hinzu_'
'hinweg'
'hink'
'hinein'
'hind'
'hiking_'
'hierzu_'
'hierfür_'
'hiera'
'hielten_'
'hic'
'hervorrufen_'
'hervorge'
'herself_'
'herrschende'
'herrliche'
'herein'
'herbeiführen_'
'herab'
'hens'
'hell'
'height_'
'hec'
'heben_'
'heav'
'hearts_'
'headquarters_'
'hd'
'hast'
'harte_'
'harmonis'
'hara'
'hap'
'handels'
'günstige_'
'gw'
'gur'
'gungs'
'gul'
'guilt'
'gui'
'grüne_'
'gründlich_'
'gründet'
'grund'
'grid'
'greift_'
'graphic_'
'grants_'
'gramm'
'good'
'gnet'
'gnant_'
'gma_'
'gm'
'globalis'
'gleicher_'
'glad_'
'gk'
'gis'
'gift_'
'gier'
'ght'
'ggle'
'gewöhnlich'
'gewer'
'gewaltige'
'getrennt'
'gestü'
'gespa'
'gesp'
'gesichert_'
'gesetze'
'geschm'
'geschickt_'
'geschi'
'geschenkt_'
'gericht'
'gerechte_'
'gepfl'
'geor'
'geopolitischen_'
'gentl'
'genocide_'
'generals_'
'genc'
'gemütliche_'
'gemäßigte'
'gemeint'
'gelie'
'geli'
'gelegenen_'
'gelangt_'
'gekämpft_'
'gekennzeichnet_'
'geka'
'geholfen_'
'gegenübersteh'
'gegenseitige_'
'gefährliche_'
'gebunden_'
'gebu'
'gebra'
'gasse_'
'gases_'
'gas'
'gangs'
'gangen_'
'gall'
'führten_'
'führend_'
'fügt_'
'förder'
'fällen_'
'furt'
'funktionen_'
'fundamentalis'
'fund'
'functional_'
'fter_'
'frühe'
'früh'
'freundlicher_'
'freund'
'frequen'
'freiwillig'
'freez'
'frameworks_'
'fragment'
'founding_'
'fossilen_'
'fortunate'
'fortschrittliche'
'fortgesetzt_'
'fors'
'formulier'
'formation'
'forgotten_'
'forg'
'forever_'
'folgte_'
'flü'
'flourish'
'flou'
'fließen_'
'flavo'
'fix'
'fische'
'finger'
'finds_'
'fina'
'film'
'figur'
'fig'
'fielen_'
'fet'
'feste'
'fern_'
'fens'
'fehlen'
'feels_'
'fed_'
'fax_'
'favourable_'
'fat_'
'fass'
'fantastische'
'fangen_'
'famili'
'fall'
'fairen_'
'fahrzeuge_'
'fab'
'eß'
'ez'
'extremism_'
'externen_'
'express'
'export'
'explicit_'
'expla'
'exercise'
'exc'
'exact_'
'exacerbate'
'eventuelle'
'evaluate_'
'europa'
'euro'
'etung'
'etten_'
'ette_'
'ette'
'ethnische_'
'eth_'
'eter_'
'esta_'
'essor'
'essen'
'esca'
'erörtern_'
'eröffne'
'erzielten_'
'erwach'
'eru'
'erto'
'erta'
'erschütter'
'erri'
'erra'
'erod'
'ernste'
'erneute_'
'ernannt_'
'erleichtert_'
'erinner'
'erho'
'erhalt'
'erh'
'ergänzt_'
'ergibt_'
'erforsch'
'erfolgte_'
'erenz'
'erect'
'eradicat'
'equip'
'epis'
'epidemic_'
'epidemi'
'entspannen_'
'entschied_'
'entru'
'enthaltenen_'
'entgegenzu'
'entfernten_'
'entfallen_'
'enrich'
'enorm'
'enntnis'
'enfor'
'endeavour'
'ency_'
'empfohlen'
'emotion'
'emission'
'embr'
'emble'
'ema'
'elli_'
'elle'
'elin'
'elf'
'electorate_'
'elect_'
'eitung_'
'eitige'
'eisung'
'einzustellen_'
'einzusch'
'einzuf'
'einstellungen_'
'einnimmt_'
'einnehmen_'
'einm'
'einla'
'einkommen_'
'einig_'
'eingeräumt_'
'eingereicht_'
'eingehend'
'eingebe'
'eine'
'eigne'
'eig'
'eiben_'
'ehrlich_'
'ehn'
'egel'
'effektiven_'
'eff'
'efe'
'ees_'
'educa'
'edition_'
'eder'
'ect_'
'ecke'
'echnologie'
'ebt_'
'ebo'
'eating_'
'dynamism_'
'dynamische'
'dyn'
'durchzusetzen_'
'durchschnittliche_'
'durchbr'
'dura'
'dungen_'
'duc'
'dubious_'
'dte'
'drücken_'
'draw'
'drag_'
'downward_'
'dow'
'dose_'
'dor_'
'domin'
'dol'
'dm'
'dlich'
'dl'
'dite'
'disziplin_'
'distress_'
'distinct_'
'diss'
'disrupti'
'displaced_'
'diskriminier'
'disk'
'dish'
'dise'
'disagreement_'
'dire_'
'dik'
'dig_'
'diffus'
'differen'
'differ'
'diesmal_'
'diesbezüglichen_'
'dienste_'
'dicht_'
'dice'
'dhi'
'deux_'
'detriment_'
'desp'
'deport'
'deploy'
'deplor'
'dependence_'
'denti'
'dens'
'denominat'
'deno'
'demonstration_'
'demonstrating_'
'dell_'
'delegate'
'defines_'
'deepen'
'deemed_'
'decrease_'
'declined_'
'deckt_'
'deciding_'
'dba'
'db'
'dauerhaften_'
'dauer'
'dateien_'
'databases_'
'dark'
'cultivat'
'culo'
'ctive_'
'crown'
'crip'
'creature_'
'craft_'
'cosmetic'
'convicted_'
'conver'
'controller_'
'contro'
'continuous_'
'conte'
'consult_'
'constitutes_'
'consist'
'consi'
'consciousness_'
'connect'
'confused_'
'condemned_'
'condemn'
'concludes_'
'concert_'
'concentrated_'
'conc'
'composition_'
'complain'
'compile'
'compact_'
'comp'
'committing_'
'comme'
'combining_'
'comb'
'collapsed_'
'collaps'
'coat'
'clu'
'cle_'
'clara_'
'cks'
'cking_'
'cker_'
'cited_'
'cis'
'cinema'
'cien'
'cid'
'chä'
'chtlich_'
'chronic'
'chor'
'chil'
'chemische_'
'chem_'
'characteristics_'
'cham'
'cents_'
'centers_'
'ceiling_'
'cease_'
'caution_'
'casinos_'
'captured_'
'capture_'
'capital'
'camp'
'by'
'burning_'
'brücke'
'broke_'
'brochure'
'brin'
'breit_'
'brauch'
'branche'
'bow'
'bound'
'bombard'
'blu'
'bloße_'
'blood'
'blockieren_'
'blat'
'biology_'
'bing_'
'billig_'
'bilaterale_'
'bid_'
'bic'
'bias_'
'bia'
'bezug_'
'bezieh'
'bezeichnen_'
'bewährte'
'bewusste'
'bewahren_'
'bewaffneten_'
'betragen_'
'bete'
'bestä'
'bestr'
'bestimmtes_'
'bestimmter_'
'besticht_'
'beside'
'besetzten_'
'beschä'
'beschei'
'besagt_'
'beruhigen_'
'berufliche_'
'berichte'
'bereiten_'
'berechtig'
'beobachtet'
'beneficial_'
'beliebtes'
'beizutragen_'
'behold_'
'behav'
'beha'
'beh'
'begr'
'befürworten_'
'befr'
'befehl'
'beeindruckend'
'bedeut'
'beau'
'bean'
'bbi'
'bbe'
'battle'
'bathing_'
'basi'
'barri'
'balcony_'
'año'
'ays_'
'avo'
'autoritäre'
'auto_'
'auszuführen_'
'ausstatt'
'ausschusses_'
'ausschließ'
'ausreichende'
'ausmachen_'
'ausgewählt_'
'ausgew'
'ausgeprägt'
'ausgebildete'
'ausführ'
'ausdrückliche'
'aufwa'
'auft'
'aufkommen_'
'aufhören_'
'aufgehoben_'
'aufgef'
'aufbauen_'
'aufb'
'ature'
'atur'
'attraktive_'
'attra'
'attain'
'attacking_'
'attacked_'
'ativen_'
'atische'
'athlet'
'ater_'
'atemberaubende'
'astr'
'aster'
'ast_'
'assumption_'
'asso'
'assi'
'assess'
'assa'
'asc'
'arri'
'arme'
'arm'
'arising_'
'ario'
'architect'
'arat'
'arabische_'
'appeal'
'appalling_'
'anzuwenden_'
'anzug'
'anze'
'anz_'
'anyway_'
'any'
'anwesend_'
'antworten_'
'antr'
'antic'
'anstrebt'
'anschl'
'anscheinend_'
'anschau'
'anpass'
'announce_'
'ankurbeln_'
'angenehme'
'angenehm_'
'angemessenen_'
'angekündigt_'
'angehen_'
'angebot'
'anfangen_'
'anes'
'ane_'
'ane'
'ances_'
'analysier'
'analyse_'
'amend_'
'ame_'
'ambigu'
'ambi'
'alts'
'altig'
'alleged_'
'aliz'
'akzeptabel_'
'aku'
'aktiviert_'
'aktiven_'
'aj'
'aine'
'ahrt_'
'ahren_'
'ahlen_'
'agt_'
'agog'
'affirm'
'affi'
'advisor'
'advertisement'
'advancing_'
'ador'
'adding_'
'actress_'
'acht'
'achievement_'
'accord_'
'accompanying_'
'accommodati'
'abzielen_'
'abw'
'absurd_'
'abstra'
'abse'
'abgew'
'abgesehen_'
'abf'
'aber'
'abb'
'aban'
']]'''
'] ._'
'Zypern_'
'Zwischen'
'Zusagen_'
'Zus'
'Zucker_'
'Zinss'
'Zell'
'Zahlung_'
'Zahlreiche_'
'Yeltsin_'
'XL'
'Wünsche_'
'Wähle'
'Wurzel'
'Wur'
'Wun'
'Works'
'Wo_'
'Wirtschaftsf'
'Wirksamkeit_'
'Wille'
'Wil'
'Wiederaufbau_'
'Widersprüche_'
'Wichtig_'
'Wichtig'
'WiFi_'
'Who'
'Whenever_'
'Wetter_'
'Wettbewerbe'
'Weste'
'Werkzeug_'
'Weltm'
'Wellen_'
'Wel'
'Weiterver'
'Weiterentwicklung_'
'Weigerung_'
'Weg'
'Week'
'Wechselkurs'
'Wechsel_'
'Wassers'
'Wasch'
'Warn'
'Waren'
'Wand'
'Wag'
'Wachstumss'
'Wac'
'Völker'
'Votum_'
'Vorsorge'
'Vorsitzender_'
'Vorha'
'Vorgabe'
'Vorf'
'Vorbereitungen_'
'Voraus'
'Visual_'
'Visit'
'Village_'
'Vier_'
'Verzögerungen_'
'Verzeichnis_'
'Verwirklichung_'
'Vertrags_'
'Vernichtung_'
'Vermittlungs'
'Verlängerung_'
'Verla'
'Verkaufs'
'Veri'
'Verhinderung_'
'Verheugen_'
'Verha'
'Verge'
'Verfechter_'
'Verbot'
'Verbind'
'Verantwortungs'
'Verantwortlichkeit'
'Veranstaltungsräume_'
'Verabschiedung_'
'Vene'
'Vegas_'
'VD'
'VAT_'
'VA'
'Users_'
'Urheber'
'Urban'
'Unterricht'
'Unterhalt'
'Unsicherheit_'
'Universum'
'Unabhängig'
'Un_'
'Umweltz'
'Umweltfragen_'
'Umsatz_'
'UNG_'
'Tätigkeiten_'
'Typ'
'Twitter_'
'Twin'
'Tw'
'Tunnel'
'Tuesday_'
'Tschetschenien_'
'Trinkwasser'
'Tribu'
'Tren'
'Treiber_'
'Treib'
'Travel_'
'Transport'
'Translat'
'Transa'
'Trans_'
'Training_'
'Track'
'Tourismus'
'Total_'
'Together_'
'Todesopfer_'
'Todes'
'Tob'
'Titan'
'Tir'
'Tho'
'Thir'
'Thi'
'Theor'
'Theo'
'Theater'
'Terminal_'
'Tell'
'Teilnehmer'
'Taxi'
'Task_'
'TS'
'TION'
'TEN'
'TEC'
'Sä'
'Synchron'
'Swe'
'Sunniten_'
'Summe_'
'Sum'
'Substanz'
'Studie'
'Strände_'
'Streben_'
'Store_'
'Stimme'
'Still'
'Stev'
'Stellvertreter_'
'Stea'
'Stal'
'Stadium_'
'Spring_'
'Spr'
'Spo'
'Spende'
'Spen'
'Spekulation'
'Sonnens'
'Sometimes_'
'Sollten_'
'Sn'
'Slowakei_'
'Sky_'
'Sitz'
'SilverFast_'
'Sigma'
'Sieb'
'Sie'
'Sicherheits_'
'Shu'
'Shar'
'Sh'
'Settings_'
'Serb'
'Senegal_'
'Senate_'
'Sem'
'Seitens'
'Segel'
'Seas'
'Script'
'Scien'
'Schwarze'
'Schwach'
'Schuh'
'Schottland_'
'Schließung_'
'Schl'
'Schiiten_'
'Santiago_'
'Sah'
'Sag'
'Safe_'
'Sad'
'SY'
'SV_'
'STE'
'SLR_'
'SL'
'SG'
'SC_'
'Rö'
'Russians_'
'Rum'
'Robert'
'River'
'Rival'
'Risikobe'
'Right_'
'Rif'
'Richtlinien'
'Revol'
'Rettung_'
'Respons'
'Reserven_'
'Republikaner_'
'Renten'
'Renditen_'
'Remo'
'Relax_'
'Reit'
'Reihenfolge_'
'Reh'
'Regul'
'Registr'
'Regierungsp'
'Regel'
'Reg'
'Reden_'
'Recovery_'
'Record'
'Rechtsetzung'
'Recht'
'Rechn'
'Recently_'
'Recent_'
'Ratsvorsitzes_'
'Randlage_'
'Ramblas_'
'Raketen'
'Rahmenprogramm'
'Rahmenbedingungen_'
'RSS_'
'RS'
'RGB_'
'Quer'
'Quark'
'Qa'
'Prävention_'
'Protokolls_'
'Promo'
'Projekten_'
'Prof_'
'Priv'
'Prev'
'Presidents_'
'Premier'
'Portal'
'Populis'
'Popularität_'
'Pon'
'Poll'
'Politi'
'Polic'
'Pl'
'Pil'
'Pierre_'
'Pic'
'Phänomen_'
'Photos'
'Photo'
'Pfund_'
'Pflege_'
'Pflege'
'Personen'
'Perl'
'Pensions'
'Peninsula_'
'Pazifik'
'Passag'
'Partners'
'Parks_'
'Parkplätze_'
'Parallele'
'Parag'
'Palette_'
'PV'
'PA_'
'Oz'
'Ot'
'Oslo_'
'Ora'
'Olive'
'Official_'
'Offensi'
'Oberfläche_'
'OLAF_'
'OL'
'Nuevo_'
'Nothing_'
'Norway_'
'Nordic_'
'Nomin'
'Niger'
'Nichts_'
'Nepal'
'Navy_'
'Natural_'
'Nationale_'
'Nahost'
'Nah'
'Nachrichten'
'Nachbarschaft_'
'NRO_'
'NOT'
'NN_'
'NH'
'Mütter_'
'Mutter_'
'Mumbai_'
'Mull'
'Movement_'
'Moto'
'Motion_'
'Monte_'
'Mons'
'Monats_'
'Mona'
'Momentan_'
'Moldova_'
'Modell'
'Mode'
'Mobilität_'
'Mobili'
'Ministeri'
'Million_'
'Mich'
'Meister'
'Meinungs'
'Meines_'
'Meer'
'Medikamente_'
'Medica'
'Mec'
'McCain_'
'Matte'
'Mathematik_'
'Materi'
'Master_'
'Marken_'
'Marken'
'Mant'
'Malta_'
'Mali_'
'Make_'
'Mai'
'MB'
'MADRID_'
'M5'
'Lücke_'
'Lösch'
'Lö'
'Luxemburg_'
'Lui'
'Luggage_'
'Luftraum'
'Low_'
'Lou'
'Look_'
'Lon'
'Logo_'
'Lockerung_'
'Lizenz_'
'Lit'
'Liquidität_'
'Linken_'
'Line_'
'Liikanen_'
'Lif'
'Lieferung'
'Lich'
'Liberia_'
'Liberal_'
'Lewi'
'Leu'
'Less'
'Leser'
'Lern'
'Leonardo_'
'Leistungsbilanz'
'Leica_'
'Lehren_'
'Leh'
'Legislativ'
'Led'
'Lebensstandard_'
'Lebensqualität_'
'Lebe'
'Learn_'
'Lauf_'
'Lar'
'Landwirtschafts'
'Lama'
'Laden_'
'LU'
'LT'
'LS_'
'LDP_'
'LC'
'Kürze_'
'Kurs'
'Kun'
'Kroatien_'
'Kriege_'
'Kri'
'Kreis_'
'Kraftwerk'
'Korr'
'Koran_'
'Konzerne_'
'Konzern'
'Konzepte_'
'Konver'
'Kontinents_'
'Konst'
'Konse'
'Kons'
'Konjunktur_'
'Kongress'
'Kongo_'
'Konflikts_'
'Komplettpreise_'
'Komp'
'Kommando_'
'Komm'
'Kom'
'Kofi_'
'Knoten_'
'Kni'
'Klä'
'Klon'
'Klinik'
'Kleid'
'Kissinger_'
'Kinders'
'Ker'
'Kathedrale_'
'Kath'
'Kapitel_'
'Kanal'
'Kaffee_'
'Jugend_'
'José_'
'Joh'
'Joe'
'Jh'
'Jere'
'Jav'
'Jakob'
'Jahr'
'Jag'
'Jacuzzi_'
'JE'
'Iv'
'Italien'
'Iss'
'Islamische'
'Interi'
'Inter_'
'Integrat'
'Instabilität_'
'Innovat'
'Innen_'
'Inha'
'Industrieländer_'
'Indiens_'
'Index'
'Impulse_'
'Improv'
'Implementi'
'Impfstoff'
'Immunität_'
'Imag'
'Ideologie_'
'Identifi'
'Ideal_'
'Id'
'Ib'
'INI_'
'IE'
'ICC_'
'Häuser_'
'Häufig'
'Hungers'
'How'
'Hop'
'Hof'
'Histori'
'Hisbollah_'
'Hindu'
'Hindernis_'
'Hilton_'
'Hilfen_'
'Hil'
'Herkunft_'
'Heran'
'Help_'
'Helm'
'Haushaltsdefizit_'
'Hauptb'
'Hat_'
'Hast'
'Halle_'
'Hall'
'Hag'
'HP_'
'Gültigkeit'
'Göteborg_'
'Gy'
'Gute_'
'Guinea_'
'Gue'
'Gründer_'
'Gründ'
'Grundsatz'
'Grunds'
'Grill'
'Gras'
'Grafik'
'Gore_'
'Gordon_'
'Gorba'
'Gor'
'God'
'Gläubiger_'
'Gleichheit_'
'Gipfels_'
'Gespräch'
'Gesetzgeb'
'Geschäfts_'
'Geschlechter'
'Gerade_'
'Geo'
'Gender_'
'Genau'
'Gemeinde_'
'Geltung'
'Gelde'
'Gei'
'Gehä'
'Geheimdienst'
'Gegenw'
'Gefühle_'
'Gefä'
'Gefangene'
'Gebühren_'
'Gebühr_'
'Gebäuden_'
'GF'
'Föderation_'
'Future_'
'Further_'
'Furcht_'
'Frucht'
'Fronte'
'Fro'
'Friedensprozess'
'Friedens_'
'Freundschaft_'
'Fremd'
'Frauen'
'Franzosen_'
'Franklin_'
'Fourth_'
'Fotokopiereinrichtungen_'
'Fotograf'
'Fos'
'Forst'
'Former_'
'Foot'
'Fon'
'Folglich_'
'Fokus_'
'Flotte'
'Flexi'
'Fitness_'
'Fischereipolitik_'
'Fis'
'Find'
'Finanzsektor'
'Finanzs'
'Finanzr'
'Finanzmärkten_'
'Finanzminister_'
'Finanz_'
'Finance_'
'Filip'
'Fift'
'Feuer_'
'Fernseher_'
'Fem'
'Feli'
'Features_'
'Fau'
'Fab'
'FR'
'FF_'
'FE'
'Export_'
'Experience_'
'Exil'
'Excel_'
'Events_'
'Event_'
'Europäisches_'
'Erweiterungs'
'Ertrag'
'Ersparnisse_'
'Erneuerung_'
'Erkenntnis_'
'Eric'
'Eri'
'Ergebnissen_'
'Erfo'
'Ep'
'Entschädigung'
'Energiequellen_'
'Elli'
'Eliten_'
'Elend_'
'Elektronik'
'Election'
'Eisen'
'Einwanderungspolitik_'
'Eintritt'
'Einschätzung_'
'Einschränkungen_'
'Einsch'
'Eins'
'Einnahme'
'Einladung_'
'Einh'
'Eingriff'
'Einfuhr'
'Eines_'
'Eigenkapital'
'Ehren'
'Ehre_'
'Ehr'
'Effe'
'Ecuador_'
'Ecke_'
'Ec'
'Ebola_'
'Easy_'
'ESS'
'EE'
'Dänemark_'
'Drittstaaten_'
'Drama'
'Dorf'
'Don_'
'Don'
'Dominion_'
'Domini'
'Diskriminierung_'
'Differen'
'Diejenigen_'
'Dha'
'Dez'
'Dere'
'Denk'
'Decision_'
'Days_'
'Dara'
'Damals_'
'DT'
'DR_'
'DPJ_'
'DNA_'
'DB'
'Crystal_'
'Crown'
'Critic'
'Corporate_'
'Corn'
'Cop'
'Converter_'
'Continental_'
'Conte'
'Cont'
'Conservative'
'Consensus_'
'Cond'
'Conc'
'Comple'
'Competiti'
'Comp'
'Columbia_'
'Coffee_'
'Cocktail'
'Cle'
'Chip'
'Chem'
'Chef'
'Check'
'Chat_'
'Charme_'
'Champs_'
'Champ'
'Chal'
'Centr'
'Casa_'
'CT_'
'By'
'Burk'
'Bulgarian_'
'Bui'
'Brüder_'
'Brotherhood_'
'Brig'
'Bridge_'
'Brennstoff'
'Bou'
'Boote'
'Bog'
'Blume'
'Bir'
'Binnenmarktes_'
'Bibliotheken_'
'Bib'
'Bewusstsein_'
'Beträge_'
'Bestellung_'
'Beseitigung_'
'Beschr'
'Besch'
'Besatzung_'
'Bericht'
'Beobacht'
'Bell_'
'Behinderte'
'Befürworter_'
'Befreiung'
'Bef'
'Beendigung_'
'Beck'
'Beam'
'Battle'
'Batt'
'Bath_'
'Basis'
'Bashir_'
'Basel_'
'Bart'
'Banglades'
'Baj'
'Bahrain_'
'BSE_'
'BN'
'BER'
'BC_'
'BBC_'
'B6_'
'Award'
'Außenhandel'
'Australian_'
'Austin_'
'Ausstellung'
'Ausbr'
'Ausblick_'
'Ausb'
'Aufr'
'Auflösung_'
'Aufhebung_'
'Aufb'
'Atlantik'
'Asp'
'Ash'
'Armee'
'Are'
'Arbeitskräften_'
'Arbeitsbedingungen_'
'Arabischen_'
'Applikation'
'Appl'
'Appart'
'Any'
'Anwendungs'
'Antrieb'
'Antid'
'Ansätze_'
'Ansprüche_'
'Anr'
'Annäherung_'
'Anlei'
'Anhang_'
'Angeles_'
'Angabe_'
'Andr'
'Anbieter_'
'Analysen_'
'Analys'
'Alter'
'Alon'
'Alco'
'Alc'
'Albu'
'Albe'
'Akzeptanz_'
'Aktu'
'Akteur_'
'Age_'
'Africans_'
'Afghan'
'Af'
'Admiral_'
'Admi'
'Addi'
'Add'
'Adam_'
'Act_'
'Acqu'
'Account'
'Abwe'
'Abstand_'
'Abschw'
'AT_'
'ASE'
'AND_'
'AL_'
'ALDE_'
'AKVIS_'
'AG'
'AC_'
'? '
'>'
'87_'
'7'
'68'
'61'
'45'
'20th_'
'1982_'
'1971_'
'1968_'
'175'
'1701_'
'160'
'13th_'
'10th_'
'0s_'
'010'
'001'
'/-_'
'. ({{_'
'*_'
'**'
')]'
''']]'
'$'
' �_'
' “ _'
' =='
' ($_'
' "._'
' ", _'
'“ '
'’ – _'
'— _'
'ע'
'ь_'
'ц'
'ны'
'ки'
'в_'
'ο_'
'μ'
'ž_'
'ši'
'Č'
'ütig'
'ündig'
'ündet'
'üllt_'
'üle'
'ührungs'
'ühl'
'ückt_'
'üchte'
'üblich_'
'überschuss_'
'überleb'
'überholt_'
'ør'
'östlichen_'
'öpfe_'
'öko'
'öffnet_'
'öffentliches_'
'öd'
'ño_'
'ê'
'éo'
'ées_'
'äßig'
'äußerster_'
'äte_'
'ärf'
'ärer_'
'änz'
'änglich'
'ängig_'
'ängen_'
'änen_'
'ändig'
'älteste_'
'älter'
'ält'
'ällt_'
'ähige'
'äd'
'äck'
'äch'
'ál'
'Überw'
'Überlegungen_'
'Überleben'
'Übera'
'Übel'
'Üb'
'Ökosystem'
'Ägyptens_'
'» | _'
'° _'
'}: _'
'|''_'
'zweitgrößte_'
'zweier'
'zweckmäßig'
'zuzuge'
'zustande_'
'zusammenbr'
'zung'
'zun'
'zuh'
'zugestimmt_'
'zugelassen_'
'zufällig'
'zoom_'
'zones_'
'zna'
'zivile_'
'zio'
'zeuge'
'zeug_'
'zet'
'zerr'
'zellen_'
'zeichnet_'
'zehn'
'zb'
'yto'
'yth'
'ypti'
'ypte'
'ypt'
'yne'
'yma'
'yf'
'yd_'
'yan_'
'xin'
'xen'
'wär'
'wählt'
'wuchs_'
'writ'
'wra'
'worthy_'
'workplace_'
'workforce_'
'wooden_'
'wolle'
'woch'
'witnessed_'
'withdraw_'
'wisse'
'wirtschaftliches_'
'wirkungsvoll'
'wirksamer_'
'winzige'
'willk'
'willig'
'will'
'wil'
'widerspricht_'
'widersprechen'
'widerspr'
'widerspiegeln_'
'widen'
'wheel'
'wertung_'
'werdende'
'weigh_'
'weiger'
'wehr'
'wede'
'watching_'
'watched_'
'wandte'
'wandeln_'
'waltung_'
'wahl_'
'wage'
'vö'
'vé'
'vul'
'voy'
'vou'
'vorübergehend_'
'vorzubereiten_'
'vorz'
'vort'
'vorsichtig_'
'vorschläge_'
'vorsch'
'vorr'
'vorn_'
'vorliegende_'
'vorle'
'vorkommen_'
'vorigen_'
'vorhers'
'vorherige_'
'vorgeb'
'vorb'
'voran_'
'volatile_'
'vocational_'
'visual_'
'violat'
'vierzig_'
'vierten_'
'vici'
'veterinar'
'vet'
'vested_'
'vessel_'
'veröffentlichten_'
'verzweifelt'
'verzichten_'
'verzerr'
'verwirklichen_'
'verwalte'
'verv'
'verursachte_'
'verträge_'
'vertreib'
'vertrag_'
'vertr'
'verteilen_'
'versäum'
'versuch'
'versta'
'versprochen_'
'versichert'
'versehen'
'versagen_'
'verma'
'verlängert_'
'verletz'
'verlei'
'verl'
'verknüpft_'
'verkehrs'
'verhängt'
'verglichen_'
'vergeb'
'verfügbare'
'verfassungs'
'verf'
'verdi'
'verdeutlich'
'verbu'
'verbreiteten_'
'verbreitete_'
'verbindliche'
'verbind'
'veranstalte'
'verans'
'verabschiedeten_'
'verab'
'venue'
'vehement'
'vede'
'vas'
'variables_'
'vall'
'val_'
'vaccination_'
'uß_'
'uzi'
'utzte'
'utze'
'utu'
'utter'
'uto'
'utier'
'usse'
'usiasm'
'urz_'
'urteil'
'url'
'urgi'
'urc'
'urbanization_'
'urb'
'upload_'
'upheaval'
'unzulä'
'unvo'
'unverzüglich_'
'unverh'
'unterzeichne'
'unterst'
'unterschr'
'unterrichte'
'unt_'
'unsp'
'unschuldige'
'unpro'
'unpredictable_'
'unmittelbaren_'
'unkt'
'unklar_'
'unke'
'universelle'
'univers'
'unite'
'union'
'uniform_'
'ungsr'
'ungskr'
'unglaub'
'unfortunate_'
'unent'
'undin'
'undertakings_'
'undertaken_'
'undert'
'underli'
'underdevelop'
'uncom'
'unce'
'unbekannte'
'unbegr'
'umweltfreundlich'
'umsetzen_'
'umfassendere'
'umfangreichen_'
'ument'
'ultur'
'uga'
'uen'
'uche_'
'uch_'
'uc_'
'ubt'
'uble_'
'té'
'tägliche_'
'tzes_'
'typen_'
'tunnel'
'troubles_'
'tropical_'
'triumph_'
'trin'
'tries_'
'trick'
'tribute_'
'trials_'
'treibe'
'trei'
'treffe'
'traurig'
'transnationale'
'translated_'
'transform'
'transferring_'
'tragische'
'traditionell_'
'traded_'
'tract'
'toxic_'
'toxi'
'tower_'
'towels_'
'toute'
'tout_'
'toi'
'tna'
'tlin'
'tlichen_'
'tire'
'tir'
'tip'
'tiona'
'timing_'
'timetable_'
'tile'
'tighter_'
'tiert_'
'tieren_'
'tiere'
'tie_'
'tid'
'tial_'
'thy_'
'thread_'
'thoughts_'
'thon_'
'therm'
'therapie'
'therapeuti'
'theories_'
'theoretische'
'thee_'
'thanking_'
'tform'
'textile_'
'tete_'
'tert'
'terroristische'
'tenu'
'tendency_'
'tended_'
'temporarily_'
'tempor'
'tempo_'
'teiln'
'teen'
'technologisch'
'tc'
'taxpayer_'
'tatt'
'tatsächliche_'
'tap'
'tance'
'talent_'
'talent'
'tags'
'tage'
'tadt_'
'tac'
'taat'
'süd'
'säu'
'sämtliche'
'synthesi'
'synchroniz'
'symbolis'
'symbol'
'sy'
'swor'
'swer'
'sweise_'
'sweet'
'sustain'
'suspicion_'
'surveys_'
'surprisingly_'
'surgi'
'sure'
'supermarkets_'
'suns'
'summari'
'sudden_'
'succeed'
'subst'
'subsidiaries_'
'subsidiar'
'subjecti'
'stärkt_'
'ständige_'
'studying_'
'studie'
'stub'
'sts'
'ströme'
'strukturierte'
'strikt'
'striking_'
'stress'
'strenge'
'streit'
'strahl'
'stische'
'stimmung'
'stim'
'stil'
'stif'
'stie'
'stic'
'stetig'
'stes_'
'steril'
'stepp'
'steile'
'stecken_'
'steady_'
'stattgefunden_'
'statistical_'
'stationen_'
'starkes_'
'standen_'
'standardiz'
'stall'
'stakes_'
'stabilisier'
'stabilen_'
'stab'
'ssta'
'ssiv'
'ssch'
'sreich'
'sra'
'sq'
'spyware_'
'spu'
'sprozess_'
'spoil'
'spl'
'spite_'
'spezialisierte'
'spends_'
'spell_'
'spell'
'spekt'
'spei'
'speedi'
'speculati'
'specific'
'sozio'
'sorg'
'sop'
'sooner_'
'sont_'
'sollt'
'solide'
'sogenannte_'
'socialist_'
'soar'
'sn'
'smuggl'
'sly_'
'slin'
'slaughter'
'skiing_'
'skat'
'skan'
'siz'
'sitze'
'sitz'
'sische'
'singles_'
'simulation_'
'simul'
'sili'
'silence_'
'signifikante'
'signature_'
'signals_'
'sights_'
'sighted_'
'siden'
'sichtlich_'
'sichtige'
'sic'
'sian_'
'shores_'
'shifting_'
'shifted_'
'sher'
'shell_'
'shak'
'sgebiet'
'sew'
'ses'
'servici'
'sequen'
'sentence_'
'sensitivity_'
'sene'
'sender_'
'sende'
'sena'
'seme'
'sem'
'seltene_'
'self'
'selecti'
'seiner'
'sehbar'
'securi'
'secular_'
'sections_'
'sect'
'searche'
'screening_'
'score'
'schätzt_'
'schwächere'
'schwächen_'
'schwei'
'schwe'
'schwachen_'
'schwache_'
'schwa'
'schuldig_'
'scht_'
'schreckliche'
'schockier'
'schläge_'
'schloss_'
'schlimmer_'
'schließt_'
'schlicht'
'schlechten_'
'schickt'
'schic'
'scheu'
'scherweise_'
'schei'
'schal'
'schaftlich'
'scenes_'
'scann'
'scan_'
'sav'
'sang'
'samples_'
'sammeln_'
'salaries_'
'sailing_'
'sahen_'
'sag'
'safeguards_'
'sacrifice_'
'sach'
'saa'
'rückt'
'rücken_'
'römische'
'rut'
'russ'
'ruppe'
'runde_'
'ruhige_'
'ruhig'
'rue'
'rpr'
'rox'
'rogramm'
'rmu'
'rmaßen_'
'rlich_'
'rks'
'rivers_'
'rite'
'risi'
'ris_'
'rio_'
'rily_'
'rigoro'
'rift_'
'riert_'
'rider'
'richtung'
'rice'
'rga'
'rew'
'revival_'
'revision_'
'reta'
'ret_'
'restrictive_'
'restricti'
'ressourcen_'
'respecting_'
'resistant_'
'repu'
'replacement_'
'rence'
'removing_'
'removal_'
'rema'
'relying_'
'relocat'
'relativ'
'reitung'
'reiten_'
'reit'
'reis_'
'reinv'
'reicht'
'reichere'
'reformier'
'reforme'
'reform'
'referendums_'
'redit'
'redefin'
'recti'
'recourse_'
'recording'
'reconcile'
'recon'
'recom'
'recipe_'
'recession'
'receiver'
'rebuild_'
'rebels_'
'rebel'
'reassure'
'realistische'
'realisti'
'realisier'
'reaches_'
'rci'
'rbeitung_'
'rav'
'rats_'
'ras_'
'rar'
'rapide_'
'ramp'
'ramm'
'rali'
'rale'
'rak'
'rainf'
'rail'
'rai'
'radio'
'rad'
'race'
'quicker_'
'quet'
'query_'
'quelle_'
'quasi_'
'qualities_'
'put'
'pup'
'punkt'
'punc'
'pump'
'puls'
'ptic'
'prünglich'
'pré'
'pru'
'prosper'
'proportional'
'properties_'
'propag'
'projekt'
'prog'
'profession_'
'probleme'
'private'
'prinzipie'
'prin'
'pride_'
'preventive_'
'pretty_'
'preside'
'preserved_'
'prerequisite_'
'premises_'
'preliminary_'
'preisen_'
'preferable_'
'predicted_'
'preche'
'preach'
'pragmatism_'
'prach'
'powered_'
'posted_'
'poss'
'positioned_'
'portugiesische'
'portray'
'portrait'
'portion_'
'portfolio'
'populistischen_'
'poll'
'plural'
'plum'
'plentiful_'
'pledge_'
'plausible_'
'plant'
'planes_'
'plane'
'plain_'
'plain'
'placing_'
'piscin'
'pioneer'
'pilot'
'pick'
'phy'
'phori'
'phen'
'phe'
'phan'
'pfen_'
'pfelt'
'pfei'
'pez'
'peu'
'perpetua'
'permi'
'permanente'
'periodi'
'perfekten_'
'perfe'
'penin'
'penetrat'
'penalties_'
'pedi'
'pedestrian_'
'peacekeeping_'
'patron'
'pati'
'patch_'
'passiv'
'passion_'
'passing_'
'parent_'
'parameter_'
'paradox'
'paradi'
'pale'
'pal_'
'painting_'
'pact_'
'packaging_'
'pa_'
'oz'
'oya'
'oxid'
'ox'
'owsk'
'owner_'
'owe_'
'oversight_'
'overs_'
'outrage'
'ous'
'ound'
'otis'
'oten_'
'otel_'
'osten_'
'osph'
'oso'
'oses_'
'orisch'
'organisierte_'
'organisieren_'
'organic_'
'ordert_'
'orbit'
'oq'
'optimier'
'opo'
'operativen_'
'ony_'
'onom'
'ono'
'onde'
'ommenen_'
'oliti'
'olic'
'olf'
'oler_'
'old'
'olar'
'oil'
'ohner'
'ogg'
'ofi'
'officer_'
'offenkundig_'
'offe_'
'odo'
'odi'
'ocr'
'ocean_'
'occurs_'
'obtaining_'
'obst'
'observer_'
'observe_'
'obligator'
'oberste_'
'oberha'
'obere'
'oasis_'
'oard_'
'nützliche'
'nüpf'
'nächstes_'
'nzen'
'nw'
'nutzbar_'
'nuts_'
'nus'
'nungen_'
'nukleare'
'ntwort'
'ntu'
'ntan'
'nsp'
'nsk'
'nschw'
'nowhere_'
'nosti'
'nostalgi'
'noisy_'
'noc'
'nnen'
'nne_'
'nli'
'nkung'
'nks_'
'nka'
'niz'
'nitts'
'nitt'
'nischen_'
'nio'
'nings_'
'nien_'
'nian'
'nho'
'ngly_'
'nglich'
'nges'
'nevertheless_'
'neutrali'
'neuer'
'neuem_'
'nets_'
'nest'
'nem'
'neighbor'
'nego'
'neglect_'
'negativ'
'ndo'
'nding_'
'ndert'
'nda'
'nch_'
'nch'
'navigate_'
'nationalist'
'nationali'
'nant_'
'nano'
'nam'
'nacht_'
'nable_'
'nab'
'märkten_'
'muy_'
'musical_'
'mur'
'mung_'
'mund'
'mounted_'
'mos_'
'moralis'
'mons'
'mona'
'molecul'
'mol'
'modul'
'moderniz'
'modernem_'
'modell'
'mob'
'mmung'
'mmi'
'mla'
'mithilfe_'
'mitb'
'mistr'
'mistaken_'
'missed_'
'misma'
'mins'
'ministry_'
'mild'
'mig'
'mier'
'mic_'
'metr'
'messe'
'mera'
'menta'
'menge'
'memori'
'mem'
'meld'
'meister_'
'mehrfach_'
'medizinischen_'
'medizinische'
'media'
'measurements_'
'mbo'
'mble_'
'mba_'
'maybe_'
'matt'
'mater'
'massiven_'
'mask_'
'mask'
'market'
'marken'
'marginali'
'mant'
'mangelt_'
'manc'
'maler'
'makroökonomischen_'
'maker_'
'majest'
'main'
'magni'
'maga'
'machine'
'lüsse'
'lücke'
'lü'
'lässig'
'lärung'
'ländliche_'
'läche'
'lze'
'lush_'
'lti'
'lte'
'lowest_'
'loud'
'lop'
'lohnt_'
'local'
'lobb'
'llungs'
'lls_'
'lles_'
'litik_'
'lite'
'litari'
'listening_'
'listened_'
'lisier'
'lining_'
'linear_'
'limit'
'lim'
'lifestyle'
'lien_'
'liefert_'
'lieder'
'lic_'
'liberali'
'liation_'
'letters_'
'lett'
'lernt'
'lenders_'
'leichte'
'leich_'
'lehnt'
'legte_'
'legitime'
'legali'
'lebte'
'lebend'
'leas'
'leak'
'lder'
'law'
'lation_'
'lateinamerikanische_'
'laser_'
'lase'
'lar_'
'laptop_'
'langer_'
'landes_'
'lager'
'lage'
'lacks_'
'künstlerische'
'kühne'
'käme_'
'kwa'
'ktis'
'kritisieren_'
'kreative_'
'krank'
'kraftwerke'
'kow'
'kou'
'kostenfreien_'
'kostenfreiem_'
'kosm'
'korrigiert_'
'konze'
'konventionelle'
'kontinuierliche'
'konsum'
'konstruktiv'
'konstitutionelle'
'konkret_'
'kompr'
'kompakt'
'kommerzielle_'
'kommende_'
'komfortabel_'
'kombin'
'kolo'
'kod'
'kleinste'
'klei'
'klassi'
'klapp'
'kki'
'kirch'
'kilometre'
'kill'
'kie'
'kerin'
'keinem_'
'kehrte_'
'kehrs'
'kauf'
'kategori'
'katastrophen_'
'kandid'
'kampf_'
'kammer'
'kamera'
'kam'
'jö'
'jährige_'
'judiciary_'
'jk'
'jeu'
'jeopardi'
'jemande'
'jekt'
'jeglicher_'
'jar'
'jail'
'jahrelange'
'iß'
'iums_'
'itude_'
'itor'
'ited_'
'istische_'
'isol'
'ision'
'ises_'
'ische'
'irrational_'
'irgendeiner_'
'ique_'
'inviting_'
'invited_'
'investor_'
'investigated_'
'inventi'
'intra'
'intimate_'
'interview'
'interventions_'
'interven'
'interrupt'
'interpreted_'
'interpretati'
'interne_'
'intensivier'
'intensiv_'
'integrity_'
'integrate_'
'int_'
'instruct'
'institute'
'install'
'instability_'
'inspirierende'
'inspections_'
'inspe'
'insight_'
'insert_'
'insel'
'inse'
'innovativen_'
'inneren_'
'inm'
'inkl'
'inhaftiert'
'ingung'
'ings'
'ingli'
'infra'
'infl'
'infecti'
'infant'
'inexp'
'ineffective_'
'industrielle_'
'indices_'
'indicates_'
'inder'
'incorrect'
'inco'
'inar'
'impro'
'impressed_'
'importiert'
'imply_'
'implant'
'imperialis'
'imperfect_'
'immunity_'
'immi'
'immens'
'imme'
'imier'
'imaging_'
'imagination_'
'ilität_'
'ilia'
'iler'
'ika_'
'ight'
'igenen_'
'ifying_'
'iffe'
'iff_'
'ife'
'iesen_'
'ielen_'
'identification_'
'ideally_'
'idad_'
'ickt'
'icke'
'iant'
'iad_'
'iPhone_'
'hübsch'
'höherer_'
'hö'
'häufig'
'häl'
'humanitäre_'
'humane'
'hrung_'
'house'
'hosts_'
'hostilit'
'hostile_'
'homeland_'
'holt'
'hochge'
'hnt_'
'hm_'
'hli'
'hinterl'
'hinter'
'hinein_'
'hinausge'
'hina'
'hierarchi'
'heti'
'het_'
'hes'
'herzliche'
'hervorragende'
'hervorr'
'hervorbr'
'herunter_'
'herum_'
'hero'
'herausragende'
'henden_'
'hende_'
'hell_'
'heir'
'heilig'
'heftige'
'hed'
'heb'
'healing_'
'header'
'hausg'
'hate_'
'hat'
'harvest'
'harmonise_'
'harmonische'
'harmoni'
'harg'
'happiness_'
'handed_'
'ham'
'halt'
'halle'
'hack'
'habt_'
'günstig'
'gänge'
'gym'
'gungen_'
'guitar'
'guidance_'
'guest'
'gue'
'guardian_'
'guard_'
'gua_'
'gründ'
'größt'
'grösste'
'groß'
'ground'
'grip'
'grim'
'gri'
'grenzüberschreitenden_'
'grenze_'
'gravi'
'gratis_'
'gration_'
'graph_'
'grain'
'gog'
'goa'
'gnis'
'gne'
'gma'
'glich_'
'glei'
'gin_'
'gig'
'gifts_'
'gia'
'ghts_'
'geäußerten_'
'gewicht_'
'gewann_'
'gesundheitliche'
'gesti'
'gestellten_'
'geste'
'gesorgt_'
'gesetzlichen_'
'geschützte'
'geschätzten_'
'geschäft_'
'geschwächt'
'gescheiterte'
'geschafft_'
'gerü'
'gerichtete_'
'gerichte'
'gerei'
'gerechtfertigt_'
'geplanten_'
'geopolitical_'
'geographical_'
'genügt_'
'genießt_'
'gene_'
'gemi'
'gelöscht_'
'gelä'
'geln_'
'gelei'
'gelegene_'
'gela'
'geiz'
'geistigen_'
'geho'
'gehe_'
'geh'
'gegl'
'gegenseitig_'
'gegens'
'gegebenenfalls_'
'gefühl'
'gefährlicher_'
'gefr'
'gefasst_'
'gee'
'gedrängt_'
'gebühren_'
'gebraucht_'
'gebr'
'gebiete_'
'geber_'
'geber'
'gaming_'
'fünfzehn'
'fünfte'
'fälle_'
'fähige'
'futures_'
'furthermore_'
'furnishings_'
'funktions'
'funktionierende'
'functionality_'
'func'
'fulfill'
'fting_'
'fte'
'frustr'
'front'
'frisch_'
'friedlichen_'
'friedliche_'
'freut_'
'freundschaft'
'französische'
'fragile_'
'fr'
'fossile'
'formulierte_'
'formally_'
'forgi'
'foreigners_'
'forci'
'force'
'foods_'
'fond'
'folge'
'folg'
'fold_'
'fluc'
'fliegen_'
'flich'
'fl'
'fizi'
'fishe'
'fires_'
'fired_'
'fire'
'find'
'finanzierten_'
'file'
'ffekt'
'fetch'
'festiv'
'feren'
'feier'
'fehlenden_'
'fehlende_'
'federa'
'fear'
'favorable_'
'fatal'
'fasci'
'fantas'
'fang'
'fanatic'
'famously_'
'familiengeführte'
'falt'
'faktor'
'fakt'
'fairer'
'factories_'
'facility_'
'facilitating_'
'fabri'
'ezi'
'exzellenten_'
'extraordinarily_'
'extr'
'exquisite_'
'expulsion_'
'explo'
'explanations_'
'experiments_'
'experiencing_'
'expects_'
'exp'
'exo'
'existen'
'exhaust'
'excuse_'
'excu'
'excess'
'eventuell_'
'evan'
'europaweit_'
'etr'
'etische'
'etic_'
'ethischen_'
'ethical_'
'eternal_'
'etch'
'estimate_'
'ession'
'esk'
'erzeugen_'
'erzeug'
'ery_'
'erwäh'
'erworben'
'erwi'
'erweis'
'erwarte'
'ervi'
'erupted_'
'ertrag'
'ertes_'
'erteilt'
'ersuchen_'
'erste'
'erstaunliche'
'erschw'
'errichtete'
'erreich'
'eros'
'ernähr'
'ermutigt_'
'erläutert'
'erläutern_'
'erlä'
'erlern'
'erleb'
'erklärung_'
'erin_'
'erholsame'
'erhebt_'
'erheb'
'erge_'
'ergab'
'eres_'
'erd'
'eran'
'equa'
'epr'
'eous'
'eo'
'entwickel'
'entrance_'
'entities_'
'enthusiast'
'enthielt'
'entgegens'
'enswerte_'
'enswert'
'ensu'
'enlarged_'
'enjoyable_'
'enh'
'engaging_'
'engag'
'endorsed_'
'encryption_'
'encouragement_'
'ench'
'enc'
'enburg_'
'employee_'
'empl'
'empfinden_'
'empfiehlt_'
'empf'
'emission_'
'embraced_'
'embargo_'
'ema_'
'elte'
'eln'
'ellte'
'ella'
'elegan'
'electron'
'eld'
'eiter'
'einzuleiten_'
'einzugehen_'
'eint'
'einseitige'
'einse'
'einsa'
'einr'
'einmalige_'
'einiges_'
'einig'
'einheitlich'
'einheit'
'einhe'
'eingerichteten_'
'eingeleitet'
'eingeh'
'eindeutige'
'eim'
'eilung_'
'eill'
'eilig'
'eile'
'eigens'
'eigen'
'eige'
'eichnung'
'eichne'
'ehung'
'ehr_'
'ehnen_'
'ehmen'
'ehen'
'egte_'
'egene'
'efully_'
'eful_'
'effektiver_'
'edl'
'edia'
'eda'
'ecological_'
'eckte'
'echen_'
'eche'
'echa'
'earn_'
'eager_'
'eag'
'dür'
'dys'
'dust_'
'dus_'
'dus'
'dumping_'
'dumm'
'dt'
'dräng'
'dry'
'drop'
'dritt'
'drig'
'dres'
'dreh'
'dreams_'
'drau'
'drastic_'
'dramatische_'
'downturn_'
'dou'
'dorf_'
'dogs_'
'document'
'doct'
'dli'
'dividing_'
'divide_'
'dity_'
'distortion_'
'distorti'
'distorted_'
'distin'
'distant_'
'disso'
'disregard'
'displays_'
'disg'
'disen'
'discourage'
'disappointing_'
'direct'
'diplomatischen_'
'dio'
'dinar'
'dimensions_'
'dikti'
'digung_'
'diesjährige'
'diesbezügliche_'
'dien'
'diction'
'dges'
'dge_'
'dg'
'devote_'
'devo'
'developer'
'detr'
'determining_'
'deteriorati'
'detection_'
'despair_'
'deser'
'desde_'
'descent_'
'desa'
'dern_'
'deny_'
'denten_'
'dent_'
'density_'
'demokrati'
'democratization_'
'dema'
'delivering_'
'delightful_'
'delete_'
'dele'
'deko'
'degrees_'
'deg'
'definitions_'
'definite_'
'definierte_'
'defend'
'defect'
'deeper_'
'deepening_'
'decree'
'decor'
'deci'
'decentrali'
'debated_'
'daz'
'dauert_'
'daten'
'dargelegt'
'dance_'
'dacht'
'cycles_'
'custom_'
'curi'
'cultures_'
'ction'
'cting_'
'crush'
'creditor_'
'cozy_'
'court'
'counterfeit'
'couldn_'
'costly_'
'corrupt_'
'cooperative_'
'cool_'
'cool'
'conversion_'
'convention_'
'contra'
'contin'
'contest_'
'contend'
'contaminated_'
'consistently_'
'considers_'
'connecting_'
'confronted_'
'confrontation_'
'confo'
'configure_'
'config'
'conciliation_'
'comprise'
'compr'
'compound'
'compliment_'
'completion_'
'complementary_'
'comple'
'complaints_'
'complaint_'
'compl'
'competence_'
'compell'
'compe'
'commerce_'
'commend'
'collecting_'
'collect'
'cluster_'
'cloth'
'clinic'
'cli'
'clearer_'
'cleane'
'clau'
'cki'
'chur'
'chun'
'chu'
'chtung_'
'chter'
'chte_'
'chslung'
'chron'
'chriften_'
'chr'
'chle'
'chere'
'chemis'
'chemicals_'
'change'
'chaff'
'centri'
'censorship_'
'ceme'
'cell'
'cel'
'ced'
'cci'
'catch'
'catastrophe_'
'carries_'
'carrier_'
'carp'
'came'
'calculated_'
'calculat'
'calamit'
'cafe'
'cac'
'cabin'
'büro'
'bö'
'buyer'
'butt'
'burn_'
'burge'
'bund'
'build'
'buffer'
'buchs'
'brüc'
'brä'
'browsing_'
'britische'
'breaks_'
'brea'
'brauchte'
'brachten_'
'bout'
'borrow_'
'bord'
'bookings_'
'boil'
'bode'
'blue'
'blogs_'
'blocki'
'blocked_'
'bling_'
'blich_'
'blem'
'bleibende'
'blas'
'bittere'
'bische'
'birthday_'
'biome'
'biologischen_'
'billige'
'bill_'
'bilde'
'bike_'
'biet'
'bg'
'bewirkt_'
'bewertet_'
'bevorzugte'
'beverages_'
'bett_'
'bets_'
'betrug_'
'betrieb_'
'betre'
'betrachte_'
'betra'
'besucht_'
'bestimmungen_'
'besorgniserregend'
'besitzer_'
'beschriebene'
'beschreiben_'
'besa'
'bereitzustellen_'
'bereitstellen_'
'bereitgestellt_'
'benchmark'
'bemerken_'
'belt'
'belo'
'belie'
'beklagen_'
'bekannteste'
'bekannter'
'bekannte_'
'beizu'
'beherrschen_'
'begrenzen_'
'begannen_'
'befürwortet_'
'befürchte'
'beförder'
'befri'
'befreien_'
'befand'
'befa'
'beeinträchtigt_'
'beein'
'bedeutendsten_'
'bedeutend'
'bedding_'
'beck_'
'beam'
'beabsichtigt_'
'bbl'
'bay_'
'baute'
'basierte_'
'bares_'
'barem_'
'banned_'
'bankr'
'bankers_'
'banken_'
'banke'
'aß'
'azi'
'aya_'
'ay'
'awful_'
'awa_'
'aviation_'
'avert'
'avers'
'aver'
'av'
'autori'
'automatische'
'automati'
'authorized_'
'authorita'
'auth'
'aute'
'ausüb'
'auszuge'
'auszubauen_'
'austausch_'
'ausser'
'aussehen_'
'auss'
'ausn'
'ausgeübt'
'ausgezeichnet_'
'ausgenommen_'
'ausgel'
'ausgehenden_'
'ausgef'
'ausgeben_'
'auseinander'
'ause_'
'ausd'
'auschen_'
'aur'
'augment'
'aufwe'
'aufsicht_'
'aufs_'
'aufr'
'aufhalten_'
'aufgerufen_'
'aufgeben_'
'attracted_'
'attent'
'attend'
'attach'
'atory_'
'atori'
'atomaren_'
'atives_'
'ative'
'ater'
'asto'
'assur'
'assignment'
'assen'
'assembl'
'asks_'
'asiatische_'
'arro'
'arriving_'
'arrives_'
'arranged_'
'armo'
'arit'
'arischen_'
'aris_'
'arin'
'aria'
'ardo'
'arde'
'archives_'
'architektonisch'
'architectural_'
'arati'
'arabisch'
'aqua'
'apt'
'approaching_'
'applaud'
'apparently_'
'ap_'
'anzupassen_'
'anzuerkennen_'
'anzubieten_'
'antibiotic'
'anteil'
'anta'
'ansprechen_'
'ansetzen_'
'annte'
'announcement'
'anisch'
'angesprochene'
'angese'
'angen'
'angekündigte'
'angegeben_'
'angebotenen_'
'angebliche'
'anforderungen_'
'anderweitig'
'andel'
'andauernde'
'ancy_'
'analy'
'amt'
'ambiance_'
'aman'
'altogether_'
'als'
'alp'
'alm'
'allmählich'
'alliances_'
'aliti'
'alige'
'algo'
'aktualisiert'
'aktivitäten_'
'aktion'
'ake'
'ais_'
'ains_'
'ail_'
'agung'
'ags_'
'ago'
'aggressive'
'agg'
'afts'
[...]
